unsigned char modelo_int8_tflite[] = {
  0x1c, 0x00, 0x00, 0x00, 0x54, 0x46, 0x4c, 0x33, 0x14, 0x00, 0x20, 0x00,
  0x1c, 0x00, 0x18, 0x00, 0x14, 0x00, 0x10, 0x00, 0x0c, 0x00, 0x00, 0x00,
  0x08, 0x00, 0x04, 0x00, 0x14, 0x00, 0x00, 0x00, 0x1c, 0x00, 0x00, 0x00,
  0x88, 0x00, 0x00, 0x00, 0x08, 0x01, 0x00, 0x00, 0x74, 0x1a, 0x00, 0x00,
  0x84, 0x1a, 0x00, 0x00, 0xc0, 0x2b, 0x00, 0x00, 0x03, 0x00, 0x00, 0x00,
  0x01, 0x00, 0x00, 0x00, 0x04, 0x00, 0x00, 0x00, 0x2e, 0xe5, 0xff, 0xff,
  0x0c, 0x00, 0x00, 0x00, 0x1c, 0x00, 0x00, 0x00, 0x3c, 0x00, 0x00, 0x00,
  0x0f, 0x00, 0x00, 0x00, 0x73, 0x65, 0x72, 0x76, 0x69, 0x6e, 0x67, 0x5f,
  0x64, 0x65, 0x66, 0x61, 0x75, 0x6c, 0x74, 0x00, 0x01, 0x00, 0x00, 0x00,
  0x04, 0x00, 0x00, 0x00, 0x6c, 0xff, 0xff, 0xff, 0x11, 0x00, 0x00, 0x00,
  0x04, 0x00, 0x00, 0x00, 0x08, 0x00, 0x00, 0x00, 0x6f, 0x75, 0x74, 0x70,
  0x75, 0x74, 0x5f, 0x30, 0x00, 0x00, 0x00, 0x00, 0x01, 0x00, 0x00, 0x00,
  0x04, 0x00, 0x00, 0x00, 0x16, 0xe6, 0xff, 0xff, 0x04, 0x00, 0x00, 0x00,
  0x0b, 0x00, 0x00, 0x00, 0x69, 0x6e, 0x70, 0x75, 0x74, 0x5f, 0x6c, 0x61,
  0x79, 0x65, 0x72, 0x00, 0x03, 0x00, 0x00, 0x00, 0x5c, 0x00, 0x00, 0x00,
  0x2c, 0x00, 0x00, 0x00, 0x04, 0x00, 0x00, 0x00, 0xb8, 0xff, 0xff, 0xff,
  0x15, 0x00, 0x00, 0x00, 0x04, 0x00, 0x00, 0x00, 0x13, 0x00, 0x00, 0x00,
  0x43, 0x4f, 0x4e, 0x56, 0x45, 0x52, 0x53, 0x49, 0x4f, 0x4e, 0x5f, 0x4d,
  0x45, 0x54, 0x41, 0x44, 0x41, 0x54, 0x41, 0x00, 0xdc, 0xff, 0xff, 0xff,
  0x14, 0x00, 0x00, 0x00, 0x04, 0x00, 0x00, 0x00, 0x13, 0x00, 0x00, 0x00,
  0x6d, 0x69, 0x6e, 0x5f, 0x72, 0x75, 0x6e, 0x74, 0x69, 0x6d, 0x65, 0x5f,
  0x76, 0x65, 0x72, 0x73, 0x69, 0x6f, 0x6e, 0x00, 0x08, 0x00, 0x0c, 0x00,
  0x08, 0x00, 0x04, 0x00, 0x08, 0x00, 0x00, 0x00, 0x13, 0x00, 0x00, 0x00,
  0x04, 0x00, 0x00, 0x00, 0x13, 0x00, 0x00, 0x00, 0x6d, 0x69, 0x6e, 0x5f,
  0x72, 0x75, 0x6e, 0x74, 0x69, 0x6d, 0x65, 0x5f, 0x76, 0x65, 0x72, 0x73,
  0x69, 0x6f, 0x6e, 0x00, 0x16, 0x00, 0x00, 0x00, 0x68, 0x19, 0x00, 0x00,
  0x60, 0x19, 0x00, 0x00, 0x48, 0x19, 0x00, 0x00, 0x2c, 0x19, 0x00, 0x00,
  0xfc, 0x18, 0x00, 0x00, 0x6c, 0x18, 0x00, 0x00, 0x5c, 0x06, 0x00, 0x00,
  0x0c, 0x06, 0x00, 0x00, 0x7c, 0x01, 0x00, 0x00, 0x4c, 0x01, 0x00, 0x00,
  0xf4, 0x00, 0x00, 0x00, 0xec, 0x00, 0x00, 0x00, 0xe4, 0x00, 0x00, 0x00,
  0xdc, 0x00, 0x00, 0x00, 0xd4, 0x00, 0x00, 0x00, 0xcc, 0x00, 0x00, 0x00,
  0xc4, 0x00, 0x00, 0x00, 0xbc, 0x00, 0x00, 0x00, 0xb4, 0x00, 0x00, 0x00,
  0x94, 0x00, 0x00, 0x00, 0x74, 0x00, 0x00, 0x00, 0x04, 0x00, 0x00, 0x00,
  0x0e, 0xe7, 0xff, 0xff, 0x04, 0x00, 0x00, 0x00, 0x60, 0x00, 0x00, 0x00,
  0x0c, 0x00, 0x00, 0x00, 0x08, 0x00, 0x0e, 0x00, 0x08, 0x00, 0x04, 0x00,
  0x08, 0x00, 0x00, 0x00, 0x10, 0x00, 0x00, 0x00, 0x28, 0x00, 0x00, 0x00,
  0x00, 0x00, 0x06, 0x00, 0x08, 0x00, 0x04, 0x00, 0x06, 0x00, 0x00, 0x00,
  0x04, 0x00, 0x00, 0x00, 0x01, 0x00, 0x00, 0x00, 0xeb, 0x03, 0x00, 0x00,
  0x0c, 0x00, 0x18, 0x00, 0x14, 0x00, 0x10, 0x00, 0x0c, 0x00, 0x04, 0x00,
  0x0c, 0x00, 0x00, 0x00, 0xa5, 0x23, 0x9b, 0x65, 0xa4, 0x8c, 0x44, 0x01,
  0x02, 0x00, 0x00, 0x00, 0x02, 0x00, 0x00, 0x00, 0x04, 0x00, 0x00, 0x00,
  0x06, 0x00, 0x00, 0x00, 0x32, 0x2e, 0x31, 0x38, 0x2e, 0x30, 0x00, 0x00,
  0x7a, 0xe7, 0xff, 0xff, 0x04, 0x00, 0x00, 0x00, 0x10, 0x00, 0x00, 0x00,
  0x00, 0x00, 0x00, 0x00, 0x00, 0x00, 0x00, 0x00, 0x00, 0x00, 0x00, 0x00,
  0x00, 0x00, 0x00, 0x00, 0x96, 0xe7, 0xff, 0xff, 0x04, 0x00, 0x00, 0x00,
  0x10, 0x00, 0x00, 0x00, 0x31, 0x2e, 0x31, 0x34, 0x2e, 0x30, 0x00, 0x00,
  0x00, 0x00, 0x00, 0x00, 0x00, 0x00, 0x00, 0x00, 0x14, 0xd7, 0xff, 0xff,
  0x18, 0xd7, 0xff, 0xff, 0x1c, 0xd7, 0xff, 0xff, 0x20, 0xd7, 0xff, 0xff,
  0x24, 0xd7, 0xff, 0xff, 0x28, 0xd7, 0xff, 0xff, 0x2c, 0xd7, 0xff, 0xff,
  0x30, 0xd7, 0xff, 0xff, 0xd2, 0xe7, 0xff, 0xff, 0x04, 0x00, 0x00, 0x00,
  0x48, 0x00, 0x00, 0x00, 0xd8, 0xe8, 0x7f, 0xd0, 0x00, 0x1f, 0x01, 0x59,
  0xca, 0xc4, 0x7f, 0x33, 0x0d, 0xf3, 0x20, 0xeb, 0xfe, 0xe0, 0x10, 0x09,
  0xac, 0x7f, 0x38, 0x45, 0x3c, 0x53, 0xac, 0x0a, 0xe5, 0xbf, 0x7f, 0x70,
  0xa9, 0xd5, 0x6f, 0x78, 0x40, 0xc4, 0x98, 0x7f, 0x41, 0x06, 0xf0, 0x49,
  0x77, 0x11, 0xb2, 0x0c, 0x25, 0xeb, 0x7f, 0x2b, 0xc3, 0x93, 0xba, 0x81,
  0x82, 0x73, 0xb0, 0xd2, 0xa1, 0x66, 0xdf, 0xf0, 0xf5, 0x7f, 0x19, 0xf9,
  0xd0, 0xc7, 0xda, 0x2c, 0x26, 0xe8, 0xff, 0xff, 0x04, 0x00, 0x00, 0x00,
  0x20, 0x00, 0x00, 0x00, 0xe3, 0xe6, 0xff, 0xff, 0x86, 0xe3, 0xff, 0xff,
  0x27, 0xe1, 0xff, 0xff, 0xa8, 0xdc, 0xff, 0xff, 0x98, 0xdf, 0xff, 0xff,
  0xf6, 0x27, 0x00, 0x00, 0x7a, 0xf7, 0xff, 0xff, 0x67, 0xf7, 0xff, 0xff,
  0x52, 0xe8, 0xff, 0xff, 0x04, 0x00, 0x00, 0x00, 0x80, 0x04, 0x00, 0x00,
  0xf9, 0x0b, 0x0e, 0xfd, 0x4f, 0xa7, 0xdd, 0x39, 0x7f, 0xf7, 0x25, 0xd6,
  0xfe, 0xcd, 0xe0, 0x19, 0x73, 0x19, 0xdc, 0x47, 0x36, 0x20, 0xca, 0x5b,
  0x04, 0x49, 0xff, 0x54, 0x23, 0xbd, 0xf6, 0x6e, 0x1f, 0x1c, 0x01, 0x0e,
  0xeb, 0x0e, 0x2c, 0x58, 0x66, 0x53, 0xfa, 0x2d, 0x0c, 0xfa, 0xe5, 0x6c,
  0x27, 0x3d, 0x3b, 0x04, 0x60, 0xf0, 0xdd, 0x29, 0x11, 0x50, 0x46, 0xef,
  0x3a, 0x17, 0x30, 0x3e, 0x0c, 0xec, 0xf8, 0x30, 0x12, 0xdd, 0x01, 0x48,
  0x35, 0x67, 0x4d, 0xe6, 0x09, 0xa4, 0xeb, 0x41, 0x7f, 0x12, 0xfe, 0xe5,
  0x22, 0xa5, 0x3a, 0x7a, 0x33, 0x6c, 0x2e, 0x19, 0x27, 0xc4, 0x2c, 0x1b,
  0x1d, 0xef, 0x36, 0x03, 0x13, 0xea, 0xd9, 0x4a, 0x3b, 0xed, 0x2b, 0x3d,
  0x3d, 0xb8, 0x1e, 0x1f, 0x2c, 0x24, 0x0e, 0x17, 0xf8, 0xdf, 0xc9, 0x68,
  0x4c, 0x30, 0x52, 0xec, 0xf8, 0x0c, 0x0a, 0x63, 0x20, 0x04, 0x4b, 0xfb,
  0x4b, 0x10, 0xff, 0x0b, 0x70, 0xfe, 0x36, 0x0a, 0x5a, 0xe0, 0x23, 0x70,
  0x72, 0x24, 0x3d, 0x37, 0x05, 0xce, 0xef, 0x67, 0x72, 0x63, 0xfe, 0xe5,
  0x4c, 0xc1, 0xef, 0x35, 0x6a, 0x2e, 0x15, 0x19, 0x03, 0xc0, 0x06, 0x47,
  0x1a, 0x0d, 0x06, 0x43, 0x11, 0xf1, 0x46, 0x4f, 0x1e, 0xe0, 0x32, 0x37,
  0xec, 0x1c, 0xea, 0x2e, 0x22, 0x34, 0x00, 0x14, 0xe5, 0xbb, 0x28, 0x7f,
  0xfd, 0x49, 0x28, 0x57, 0x06, 0xf9, 0x06, 0x10, 0x52, 0x3c, 0x38, 0x02,
  0x2c, 0x1b, 0xef, 0x50, 0x14, 0x2f, 0x50, 0x29, 0xdf, 0xea, 0xfd, 0x2e,
  0x2b, 0x20, 0x36, 0x28, 0x33, 0xe1, 0x00, 0x25, 0x26, 0x44, 0x31, 0x22,
  0x15, 0xfc, 0xea, 0x7f, 0x68, 0x49, 0x3c, 0x06, 0x3e, 0x02, 0x0d, 0x7a,
  0x0d, 0x21, 0x13, 0xe8, 0x35, 0xfc, 0xea, 0x1e, 0x3f, 0xf7, 0xfc, 0x1f,
  0x3c, 0xcb, 0x00, 0x39, 0xfe, 0x26, 0x0e, 0xf0, 0x27, 0xf2, 0xd5, 0x6e,
  0x33, 0x16, 0xee, 0x01, 0x13, 0x0c, 0x24, 0x43, 0xff, 0x3e, 0x08, 0x34,
  0x14, 0x09, 0xef, 0x4f, 0x01, 0x2a, 0x06, 0xfa, 0x0c, 0x10, 0xdd, 0x52,
  0x25, 0x3b, 0xd9, 0x4e, 0x3b, 0x94, 0xc9, 0xf9, 0xf1, 0x12, 0x2b, 0x58,
  0x1c, 0x9a, 0xf6, 0x35, 0x47, 0x05, 0x02, 0xcd, 0x31, 0x19, 0x1a, 0x54,
  0xfd, 0x4a, 0x45, 0x58, 0x2c, 0xb8, 0x49, 0x30, 0xd9, 0xec, 0x06, 0xd7,
  0xec, 0xd3, 0x52, 0x15, 0x7b, 0x2a, 0x0f, 0x0a, 0xcb, 0x19, 0x42, 0x63,
  0x72, 0x76, 0xf8, 0x1b, 0xfb, 0xfd, 0xdb, 0x75, 0x1f, 0x0e, 0x20, 0x3a,
  0x0a, 0xae, 0x19, 0x6b, 0x13, 0xef, 0x4b, 0x7f, 0x7d, 0xa1, 0x57, 0x44,
  0x3c, 0xf2, 0x16, 0x1b, 0x20, 0x0f, 0xc2, 0x3b, 0x49, 0x09, 0x00, 0x1f,
  0x47, 0x16, 0x3a, 0x4c, 0x6d, 0x17, 0xe1, 0x08, 0x38, 0x05, 0x06, 0x5c,
  0xf0, 0x27, 0xdb, 0x14, 0xe2, 0xe9, 0xf7, 0x0d, 0x62, 0x48, 0x22, 0xe0,
  0xf0, 0xaa, 0x3d, 0x53, 0x07, 0x0c, 0x0d, 0x30, 0x00, 0xee, 0xc7, 0x59,
  0x23, 0x02, 0x25, 0x3a, 0x47, 0xde, 0x32, 0x11, 0x5e, 0x0d, 0x14, 0x50,
  0x5b, 0xf6, 0xd7, 0x2a, 0x7f, 0x4a, 0x63, 0x37, 0x6c, 0x0f, 0x00, 0x25,
  0x2b, 0x39, 0x0b, 0xe6, 0x2f, 0xec, 0xf2, 0x78, 0x33, 0x00, 0x06, 0x21,
  0x14, 0xcc, 0x1a, 0x2b, 0x54, 0x09, 0x1f, 0xed, 0x3a, 0xe1, 0x0d, 0x7c,
  0x53, 0x1b, 0x17, 0x25, 0x16, 0xef, 0x28, 0x4b, 0xfb, 0x26, 0x2a, 0xe0,
  0x09, 0xc8, 0xe3, 0x36, 0x14, 0x0d, 0xeb, 0x1e, 0x39, 0x21, 0x2f, 0x7f,
  0x50, 0x46, 0xea, 0x0f, 0x4b, 0x02, 0x34, 0x33, 0x6c, 0x1f, 0x46, 0x5d,
  0x36, 0xd6, 0x25, 0x2d, 0x31, 0x29, 0x14, 0x42, 0x4a, 0xd3, 0xd7, 0x66,
  0x6f, 0x55, 0x4f, 0xe2, 0xf7, 0x16, 0x18, 0x70, 0x00, 0x68, 0xf8, 0x0a,
  0x31, 0xbd, 0x3a, 0x62, 0x27, 0x2a, 0x22, 0x3f, 0xf7, 0xed, 0x26, 0x4a,
  0x52, 0xe5, 0x51, 0xe0, 0x0e, 0xe3, 0xc3, 0x7f, 0xf5, 0xec, 0xfb, 0x2d,
  0x07, 0x26, 0x0b, 0x5c, 0x12, 0xde, 0x1c, 0x0a, 0x03, 0xa3, 0xf1, 0x13,
  0x14, 0x5f, 0x38, 0x11, 0x5f, 0xa9, 0x20, 0x6c, 0x7c, 0xe4, 0x49, 0x6e,
  0x68, 0xb6, 0xe3, 0x11, 0x3d, 0xdc, 0x15, 0x63, 0x25, 0xf5, 0xda, 0x7e,
  0x06, 0x1c, 0x1e, 0x2c, 0x1c, 0x07, 0xbf, 0x31, 0x79, 0x41, 0xfd, 0x29,
  0x1c, 0x29, 0xe1, 0x58, 0x12, 0x2b, 0x43, 0xf3, 0x1f, 0xa0, 0x20, 0x7f,
  0x1b, 0xfe, 0x31, 0x2f, 0xfd, 0xee, 0xd5, 0x34, 0x69, 0xea, 0x21, 0x4a,
  0x42, 0x18, 0xd9, 0x20, 0x30, 0x4a, 0x3d, 0xd3, 0xdb, 0x0f, 0x36, 0x7c,
  0x02, 0xfb, 0x54, 0x5b, 0xe0, 0xbb, 0x0f, 0x22, 0x5e, 0x05, 0x56, 0x14,
  0x5d, 0x08, 0xde, 0x5d, 0x77, 0xf8, 0xd6, 0x13, 0x35, 0xf4, 0xd1, 0x65,
  0x1a, 0x10, 0x3c, 0xeb, 0xd5, 0xda, 0x1b, 0x2e, 0xf0, 0x0c, 0x03, 0x16,
  0x11, 0xe0, 0x16, 0x57, 0x3b, 0x45, 0x20, 0xdc, 0xe8, 0xc1, 0x04, 0xfc,
  0x3b, 0xd0, 0x05, 0x61, 0x14, 0xcf, 0x2b, 0x09, 0x59, 0x02, 0xf1, 0x07,
  0xf2, 0xc0, 0xe4, 0x02, 0x29, 0x4b, 0xd7, 0x3a, 0x41, 0xbc, 0x11, 0x6e,
  0x26, 0x40, 0x7b, 0x69, 0x4a, 0xcb, 0x01, 0x04, 0x3f, 0xe3, 0x58, 0x5b,
  0x7f, 0x1b, 0x45, 0x5a, 0x6b, 0x03, 0x32, 0x48, 0x14, 0x29, 0x22, 0x2a,
  0x0e, 0x5f, 0x14, 0x0e, 0xe1, 0x2c, 0x40, 0x7f, 0x53, 0x39, 0x31, 0x32,
  0x43, 0x19, 0xf7, 0x25, 0x6b, 0x49, 0xd8, 0x3c, 0xd0, 0x0c, 0xd7, 0x21,
  0x53, 0x3b, 0xff, 0xe5, 0x52, 0x25, 0xba, 0x0d, 0x1c, 0x0b, 0xdb, 0x3a,
  0xe0, 0xa9, 0x23, 0x40, 0x78, 0x4d, 0x3e, 0x10, 0xee, 0x1e, 0x1b, 0x67,
  0x1d, 0xf9, 0xee, 0x59, 0x4f, 0xd6, 0xe5, 0x04, 0x15, 0x38, 0x53, 0x6f,
  0x3c, 0xa3, 0x04, 0x33, 0x54, 0xe9, 0x3a, 0x7c, 0x5d, 0x09, 0xc1, 0xfc,
  0x6c, 0x54, 0x40, 0x03, 0xce, 0xd3, 0xfa, 0x5a, 0x3f, 0x50, 0x39, 0xf3,
  0x3b, 0x1f, 0x2d, 0x7c, 0x11, 0x6d, 0x53, 0x2f, 0x4d, 0xba, 0x2d, 0x44,
  0xf7, 0x4a, 0xf0, 0x14, 0xe4, 0x28, 0x2b, 0x31, 0x43, 0xe8, 0xfa, 0xe5,
  0x2b, 0xb0, 0x0f, 0x37, 0x02, 0x12, 0x14, 0x43, 0x4b, 0xf7, 0x14, 0x46,
  0x65, 0x50, 0x58, 0xe9, 0x49, 0x0e, 0xef, 0xf5, 0x05, 0x53, 0x41, 0x15,
  0xea, 0xe9, 0xef, 0x62, 0x79, 0x25, 0x47, 0x28, 0x4c, 0x1b, 0xef, 0x7f,
  0x1a, 0x00, 0x31, 0x3c, 0xda, 0xe9, 0x20, 0x4e, 0x0b, 0x29, 0x16, 0x1f,
  0xf9, 0x04, 0x25, 0x3d, 0x54, 0x3a, 0xf4, 0x3a, 0x29, 0x2f, 0xec, 0x6f,
  0xec, 0x42, 0x1f, 0xe6, 0x3a, 0xdc, 0x0a, 0x45, 0xf4, 0xf5, 0x0f, 0x16,
  0xe1, 0xf5, 0x19, 0x68, 0x52, 0x12, 0xed, 0x12, 0xd3, 0xec, 0x24, 0x7f,
  0x37, 0x30, 0x08, 0x01, 0x48, 0xfc, 0x30, 0x35, 0x48, 0x35, 0xe9, 0x1f,
  0x1e, 0x2d, 0x2d, 0x52, 0x10, 0x1e, 0x27, 0xfa, 0x43, 0xf1, 0x28, 0x43,
  0x4c, 0x54, 0xd8, 0xcb, 0x36, 0xd6, 0xd1, 0xfe, 0xee, 0x42, 0x37, 0xf0,
  0xe1, 0xeb, 0x2e, 0x00, 0x13, 0x04, 0xf5, 0x17, 0x1d, 0x04, 0x2a, 0xe9,
  0x09, 0xd8, 0x11, 0x03, 0x10, 0xe0, 0xef, 0xf4, 0x50, 0xdc, 0x02, 0xee,
  0x51, 0x00, 0x0c, 0x47, 0xfa, 0x1a, 0x5c, 0x36, 0xf5, 0x21, 0xc5, 0x42,
  0x0a, 0xdf, 0x56, 0x6f, 0x5b, 0x06, 0x36, 0x18, 0x6d, 0x47, 0x7f, 0x20,
  0x5f, 0x03, 0xd8, 0x2d, 0x2c, 0x4c, 0x7d, 0x23, 0x45, 0x19, 0x39, 0x7b,
  0x03, 0xf6, 0xfc, 0xda, 0x48, 0x09, 0xf7, 0xfd, 0x62, 0xf5, 0xd1, 0xc2,
  0x17, 0x42, 0xca, 0x1d, 0x5a, 0x68, 0x18, 0x1b, 0xec, 0xca, 0xde, 0x24,
  0xe9, 0xe0, 0xd9, 0x04, 0x00, 0x2d, 0xc9, 0x1a, 0x11, 0xdc, 0xce, 0xf0,
  0x40, 0xc8, 0x09, 0x6f, 0x40, 0x33, 0x44, 0x0f, 0xfd, 0x38, 0x04, 0x7a,
  0x3b, 0xf3, 0x60, 0x7f, 0x10, 0x2c, 0x27, 0x34, 0x6e, 0x33, 0x26, 0x1e,
  0xfe, 0xd5, 0x29, 0x4d, 0x6c, 0x4f, 0x01, 0x65, 0x58, 0x22, 0x32, 0xf7,
  0x6e, 0x75, 0x20, 0x50, 0x18, 0xbf, 0xd5, 0x68, 0x72, 0x77, 0x0d, 0xe8,
  0xfc, 0x0a, 0xeb, 0x18, 0x22, 0x3d, 0x02, 0x03, 0x09, 0xd5, 0xcc, 0x2c,
  0x3f, 0x0d, 0x2d, 0x3a, 0x0c, 0xe5, 0xe8, 0x4f, 0x43, 0x58, 0xeb, 0x2b,
  0x12, 0x01, 0xfc, 0x49, 0x58, 0x35, 0x22, 0xf9, 0x03, 0xca, 0x1b, 0x1c,
  0x4c, 0x13, 0x3a, 0xf3, 0x0a, 0xc7, 0x1a, 0x3d, 0x46, 0x0c, 0x43, 0x34,
  0x0c, 0xd0, 0x2c, 0x6c, 0x7f, 0x17, 0x58, 0x4a, 0xed, 0x18, 0x15, 0x6a,
  0xde, 0xec, 0xff, 0xff, 0x04, 0x00, 0x00, 0x00, 0x40, 0x00, 0x00, 0x00,
  0xda, 0xe4, 0xff, 0xff, 0xf2, 0xdf, 0xff, 0xff, 0x44, 0xe9, 0xff, 0xff,
  0x55, 0xf0, 0xff, 0xff, 0x8d, 0xe5, 0xff, 0xff, 0x61, 0xea, 0xff, 0xff,
  0xb2, 0xf1, 0xff, 0xff, 0x9a, 0xea, 0xff, 0xff, 0x73, 0xdd, 0xff, 0xff,
  0xb9, 0xf3, 0xff, 0xff, 0xf4, 0xe5, 0xff, 0xff, 0x29, 0xe6, 0xff, 0xff,
  0x92, 0xed, 0xff, 0xff, 0x63, 0xf5, 0xff, 0xff, 0x28, 0xec, 0xff, 0xff,
  0x5b, 0xef, 0xff, 0xff, 0x2a, 0xed, 0xff, 0xff, 0x04, 0x00, 0x00, 0x00,
  0x00, 0x12, 0x00, 0x00, 0x37, 0x5e, 0x3e, 0x36, 0x0b, 0x3d, 0x0a, 0x4a,
  0x41, 0xff, 0x35, 0x53, 0x42, 0x27, 0x18, 0x37, 0x09, 0x29, 0x41, 0x46,
  0x21, 0x3c, 0x14, 0x50, 0x14, 0x28, 0x1d, 0x38, 0x58, 0xf6, 0xfe, 0x20,
  0x35, 0x42, 0x51, 0x31, 0x59, 0x0c, 0x2d, 0x59, 0x4f, 0x2e, 0x4f, 0x3b,
  0x58, 0x43, 0x1d, 0x58, 0xe4, 0x16, 0x1f, 0x12, 0x15, 0xcd, 0x13, 0x09,
  0xd8, 0xe1, 0x20, 0x08, 0x00, 0x0d, 0x17, 0x02, 0x1a, 0xf6, 0xf8, 0xe8,
  0x21, 0xd4, 0x20, 0x2d, 0x1c, 0x28, 0xe6, 0x23, 0x07, 0xdb, 0x14, 0x11,
  0x0e, 0x25, 0x08, 0x2e, 0xf5, 0xe0, 0xe6, 0x2c, 0xd4, 0xdb, 0xdd, 0x06,
  0x0f, 0xf9, 0x07, 0x11, 0x60, 0x22, 0x34, 0x03, 0x13, 0x1b, 0x4f, 0x40,
  0x37, 0x75, 0x66, 0x4b, 0x20, 0x60, 0x6d, 0x2b, 0x5f, 0x44, 0x3d, 0x45,
  0x41, 0x15, 0x3d, 0x60, 0x14, 0x24, 0x31, 0x4b, 0x58, 0x6c, 0x5a, 0x33,
  0x2a, 0x4f, 0x36, 0x34, 0x46, 0x1b, 0x29, 0x5c, 0x58, 0x7f, 0x75, 0x18,
  0x2b, 0x2b, 0x42, 0x26, 0xe5, 0xf8, 0x37, 0x38, 0xeb, 0xd8, 0x41, 0x21,
  0x4b, 0xc3, 0x92, 0xcf, 0xbb, 0x56, 0xd8, 0xc6, 0x96, 0x34, 0x10, 0x0d,
  0xa8, 0xd2, 0x95, 0x4d, 0x16, 0xb4, 0xbf, 0xa2, 0xd0, 0xf5, 0x57, 0x20,
  0xdd, 0xb8, 0x9b, 0xbb, 0x4e, 0xd5, 0x5a, 0xc9, 0x4f, 0x0b, 0x12, 0x4d,
  0x32, 0x82, 0x12, 0xe8, 0xb2, 0xf9, 0xdd, 0x52, 0xc3, 0xf7, 0xb2, 0x0b,
  0xe9, 0x50, 0xca, 0xb5, 0xe0, 0x15, 0xe1, 0x91, 0xc3, 0x20, 0xa6, 0xed,
  0xa6, 0x13, 0xad, 0xc7, 0xc0, 0x02, 0x0b, 0x28, 0xe0, 0xd5, 0x34, 0x28,
  0x44, 0x0b, 0x8b, 0x1f, 0x92, 0xc8, 0x4b, 0x15, 0xd8, 0x12, 0x26, 0x3b,
  0x4a, 0xae, 0x81, 0x8a, 0xf9, 0x57, 0x45, 0x1f, 0x28, 0xdc, 0xc9, 0x33,
  0xf2, 0xc4, 0xbd, 0x9b, 0xf8, 0x8e, 0xc3, 0xc6, 0xab, 0xf6, 0x97, 0xf4,
  0x84, 0x46, 0x1e, 0x24, 0xc9, 0xae, 0xe6, 0xb9, 0x0d, 0xc1, 0x98, 0x52,
  0xf5, 0xc5, 0xdc, 0xf2, 0xb6, 0x29, 0x56, 0x48, 0xfd, 0x21, 0x93, 0x4f,
  0x4f, 0xbb, 0xc8, 0x05, 0x42, 0xfd, 0x52, 0x3b, 0xff, 0x4b, 0x57, 0x51,
  0x00, 0x08, 0x0f, 0x44, 0x66, 0x15, 0x16, 0x3e, 0x58, 0x33, 0x1a, 0x4a,
  0x02, 0x1f, 0xfa, 0x02, 0x1c, 0x08, 0x3a, 0x48, 0x27, 0x1f, 0x0c, 0x0e,
  0x60, 0x1b, 0x30, 0x4e, 0x53, 0x18, 0x4c, 0x05, 0x27, 0x11, 0x1c, 0x4c,
  0x66, 0x02, 0x50, 0x37, 0x21, 0xda, 0x12, 0xe3, 0xe3, 0x2b, 0xd6, 0xf5,
  0x27, 0x22, 0x30, 0xe6, 0xf6, 0xc5, 0x24, 0xec, 0xf1, 0xe1, 0x28, 0xe3,
  0xec, 0x06, 0x14, 0x12, 0xd4, 0xfd, 0xfa, 0xd7, 0xfa, 0xc2, 0xee, 0x1a,
  0xf6, 0xf5, 0x23, 0x04, 0x00, 0xd8, 0xde, 0x1b, 0x15, 0xdb, 0x2d, 0x13,
  0x12, 0xd6, 0xeb, 0x22, 0x16, 0x00, 0x60, 0xf8, 0x24, 0x0c, 0x66, 0x11,
  0x17, 0x63, 0x56, 0x46, 0x0e, 0x62, 0x6c, 0x5d, 0x13, 0x26, 0x16, 0x11,
  0x34, 0x15, 0x3a, 0x12, 0x02, 0x1e, 0x5e, 0x25, 0x59, 0x15, 0x7f, 0xfc,
  0x48, 0x62, 0x14, 0x09, 0x5b, 0x48, 0x4c, 0x27, 0x5c, 0x5e, 0x6d, 0x02,
  0x59, 0x23, 0x45, 0x10, 0x05, 0x90, 0x4c, 0x26, 0x02, 0xc8, 0x1e, 0x3c,
  0xf5, 0x82, 0xd5, 0x1a, 0xc4, 0x3c, 0x9b, 0xb2, 0x0b, 0x94, 0x62, 0x42,
  0x2d, 0x86, 0x98, 0xb4, 0x2e, 0x19, 0xeb, 0xb3, 0xa8, 0x1f, 0x41, 0x4c,
  0x5a, 0x4e, 0x3d, 0x81, 0x0b, 0xaf, 0xe0, 0xe6, 0x46, 0x83, 0x4e, 0x42,
  0xee, 0xa2, 0xd3, 0x94, 0xbc, 0x53, 0xa5, 0x37, 0x48, 0x8e, 0x31, 0x81,
  0xf9, 0xc2, 0x25, 0x2d, 0x5f, 0x0e, 0x02, 0xb1, 0x86, 0x40, 0x45, 0x18,
  0xdb, 0xe5, 0x59, 0xa2, 0x25, 0x53, 0xa3, 0x22, 0xad, 0x01, 0xae, 0xf6,
  0x41, 0x0c, 0x37, 0xf8, 0xcc, 0xeb, 0xae, 0x3b, 0x2a, 0xb6, 0x3a, 0x39,
  0x57, 0xcb, 0x17, 0x5c, 0x0e, 0x2b, 0xf1, 0xf4, 0xd4, 0xa6, 0x3f, 0xf8,
  0xc0, 0x16, 0x49, 0x26, 0xad, 0x2f, 0x89, 0xbd, 0xfa, 0x2f, 0x85, 0x09,
  0x01, 0x8d, 0xf4, 0x39, 0xbd, 0x25, 0x48, 0xd1, 0x83, 0x8b, 0xf8, 0xf9,
  0x5c, 0xdc, 0x22, 0x2e, 0x10, 0x8a, 0x96, 0xb0, 0xe0, 0xde, 0xea, 0x92,
  0x8f, 0xd9, 0xde, 0x3c, 0x0e, 0x11, 0xa1, 0x9c, 0xfc, 0x02, 0xd3, 0xdd,
  0x16, 0x1b, 0x28, 0xb3, 0xbf, 0xdd, 0x11, 0xa6, 0xf6, 0x0f, 0xb5, 0x09,
  0xd4, 0x13, 0x29, 0xc0, 0x19, 0x2f, 0x24, 0xcb, 0xe2, 0x41, 0x28, 0x03,
  0xab, 0xa6, 0xcc, 0xb3, 0xeb, 0xbd, 0xf1, 0xf4, 0xdd, 0x3d, 0x10, 0x93,
  0xd0, 0x2f, 0x1c, 0xac, 0xfc, 0x01, 0x12, 0xfe, 0x04, 0x38, 0x5e, 0xe6,
  0xe2, 0x34, 0xf6, 0x38, 0xfa, 0x34, 0x5d, 0x1b, 0x59, 0x2f, 0x40, 0x25,
  0x31, 0x0e, 0x0b, 0x45, 0x15, 0x16, 0x5a, 0x59, 0xff, 0x7f, 0x3a, 0x43,
  0x09, 0x05, 0x07, 0x4f, 0xff, 0x60, 0x4b, 0x42, 0x4d, 0x31, 0x5b, 0xf4,
  0x02, 0x3b, 0x0e, 0x37, 0x10, 0xc6, 0xd3, 0xeb, 0x12, 0xd8, 0xc9, 0xf1,
  0xf6, 0xd4, 0xa9, 0x00, 0xc5, 0xce, 0xcc, 0x25, 0xc8, 0xfe, 0xd6, 0x43,
  0xd1, 0xc2, 0xd0, 0x27, 0x19, 0xcc, 0xc3, 0x1e, 0x06, 0xda, 0xe4, 0x25,
  0xda, 0xdd, 0x31, 0x24, 0xce, 0x9f, 0xb5, 0xb6, 0x32, 0xc5, 0xfa, 0xe8,
  0x0b, 0xf0, 0x8d, 0xe7, 0x13, 0x27, 0x18, 0x5d, 0x25, 0x08, 0x4b, 0x38,
  0x3e, 0x34, 0x41, 0x2f, 0x12, 0xe6, 0x2e, 0x3a, 0x29, 0x41, 0x15, 0x44,
  0x2b, 0x44, 0x04, 0x04, 0x4d, 0x2c, 0x4c, 0x3c, 0x55, 0x26, 0x2d, 0x3a,
  0x6b, 0x2e, 0x3e, 0x4d, 0x57, 0xfe, 0x1f, 0x24, 0x68, 0x0d, 0x07, 0x26,
  0x3c, 0x19, 0x27, 0x51, 0x1d, 0x10, 0x3e, 0x26, 0xfd, 0xcd, 0x2c, 0xd9,
  0xee, 0x34, 0x03, 0xdc, 0x1f, 0xda, 0x11, 0x03, 0xcf, 0xf9, 0xd9, 0xd1,
  0xf1, 0x1d, 0xf3, 0xf1, 0x2f, 0xed, 0xcf, 0x13, 0xc7, 0xf3, 0x0b, 0xea,
  0xed, 0x2c, 0x27, 0x06, 0x0e, 0xf5, 0x20, 0x0f, 0xf0, 0x30, 0x12, 0x19,
  0x13, 0xc4, 0x13, 0x2b, 0x30, 0x3f, 0x66, 0x25, 0x39, 0x48, 0x71, 0x19,
  0x11, 0x7f, 0x3f, 0x0b, 0x5f, 0x3e, 0x7f, 0x48, 0x2c, 0x15, 0x60, 0x04,
  0x35, 0x21, 0x1b, 0x29, 0x29, 0x77, 0x47, 0x34, 0x13, 0x74, 0x5e, 0x3e,
  0x2e, 0x45, 0x62, 0xf3, 0x04, 0x3f, 0x72, 0x41, 0x2e, 0x62, 0x39, 0x60,
  0x21, 0x52, 0x65, 0x68, 0x46, 0x5c, 0x66, 0x3f, 0x1d, 0x2e, 0x29, 0x0a,
  0x30, 0x37, 0x1a, 0x20, 0x63, 0x16, 0x64, 0x49, 0x4a, 0x51, 0x24, 0x0f,
  0x11, 0xed, 0x35, 0x41, 0x28, 0x44, 0x08, 0x3f, 0x72, 0x1a, 0x31, 0x4f,
  0x5d, 0x1e, 0x22, 0x63, 0x1c, 0x50, 0x53, 0x45, 0x4c, 0xf4, 0x59, 0x64,
  0x64, 0xeb, 0x22, 0x32, 0x01, 0x2e, 0x02, 0x15, 0x10, 0xf4, 0xcd, 0x34,
  0x08, 0xcc, 0xdc, 0xd6, 0x2a, 0xff, 0xe5, 0xfb, 0xce, 0x2c, 0x27, 0xdf,
  0x0c, 0x1b, 0x28, 0x22, 0x31, 0xd8, 0xe2, 0xe9, 0xf9, 0x08, 0x24, 0xcf,
  0xdb, 0x39, 0x2d, 0xe0, 0x15, 0xe3, 0xf6, 0xf0, 0xf3, 0xd1, 0xe0, 0xe7,
  0xf5, 0xbe, 0xec, 0xfa, 0x40, 0x0c, 0x0f, 0x41, 0x2b, 0x20, 0x1c, 0x0f,
  0x64, 0x43, 0x5b, 0x01, 0x31, 0x2a, 0x34, 0x22, 0x20, 0x3f, 0xfc, 0x40,
  0x10, 0x2f, 0x56, 0x3d, 0x2e, 0x44, 0x4b, 0x4e, 0x6c, 0x49, 0x44, 0xfd,
  0x1f, 0x1b, 0x48, 0x40, 0x0c, 0x5c, 0x21, 0x50, 0x38, 0x7f, 0x62, 0xfe,
  0x26, 0x6f, 0x41, 0x22, 0x27, 0xa0, 0xf6, 0x0f, 0x47, 0x97, 0xe0, 0xeb,
  0x43, 0xf6, 0x28, 0x53, 0x43, 0xd4, 0xbf, 0xc9, 0xbe, 0xf2, 0xce, 0xd4,
  0xe5, 0xb9, 0xb0, 0x8d, 0x21, 0x12, 0xef, 0x32, 0xab, 0x25, 0x0e, 0x9a,
  0x41, 0x18, 0x20, 0xe9, 0xe4, 0x93, 0x0b, 0x9a, 0xd0, 0x28, 0x4e, 0xd9,
  0x8e, 0xe7, 0x25, 0x03, 0xe6, 0x1f, 0x19, 0xcb, 0x2c, 0x39, 0x4a, 0xec,
  0x0e, 0xbf, 0xe1, 0x97, 0x2b, 0x90, 0x11, 0x81, 0xef, 0x15, 0xce, 0x9c,
  0xe1, 0xeb, 0x21, 0xb3, 0xcb, 0x3f, 0x42, 0x29, 0xcf, 0xba, 0xf0, 0x2e,
  0xb5, 0x13, 0x24, 0x47, 0x04, 0x2f, 0x1d, 0xec, 0x99, 0xf6, 0xc4, 0x2b,
  0x4f, 0x12, 0x26, 0x13, 0x37, 0x2a, 0x3f, 0xc9, 0x26, 0x2b, 0xd9, 0x12,
  0x2b, 0x38, 0x92, 0xe3, 0xd6, 0x97, 0x08, 0x9d, 0xeb, 0xaa, 0xd0, 0xb0,
  0xa6, 0xe3, 0xcf, 0xad, 0xcc, 0xde, 0xd5, 0xdc, 0x0d, 0x8e, 0x9c, 0x91,
  0xcb, 0xc3, 0xf9, 0xdd, 0xbc, 0x9a, 0x46, 0x96, 0x40, 0xc6, 0xdb, 0xea,
  0xe9, 0x96, 0xeb, 0xac, 0x3c, 0x1c, 0x2f, 0x5a, 0x43, 0x3c, 0x49, 0x23,
  0x26, 0x27, 0x05, 0x2f, 0x29, 0x08, 0x1b, 0x5b, 0x45, 0x08, 0x11, 0x32,
  0x16, 0x08, 0x3d, 0x18, 0x5b, 0xee, 0x0b, 0x2d, 0x65, 0x32, 0x00, 0x40,
  0x1b, 0x22, 0x4b, 0x3e, 0x0d, 0x55, 0x53, 0x2e, 0x37, 0x41, 0x45, 0x24,
  0x14, 0xfb, 0x0a, 0x34, 0x18, 0x1d, 0x33, 0xdb, 0x2c, 0xda, 0x1e, 0x11,
  0xd6, 0xe4, 0x20, 0x0e, 0xda, 0xf7, 0x0b, 0x2d, 0x21, 0xfe, 0x2a, 0xf7,
  0xf8, 0x27, 0xff, 0xd4, 0xe4, 0xf3, 0x12, 0x29, 0x05, 0xc0, 0x17, 0xff,
  0x1d, 0x11, 0xd6, 0xe4, 0xdc, 0x24, 0xf6, 0x0e, 0xda, 0xfc, 0x16, 0xe1,
  0xcb, 0x14, 0xc9, 0x26, 0x59, 0x1f, 0x45, 0x2a, 0x54, 0x67, 0x3a, 0x21,
  0x0e, 0x21, 0x33, 0xf7, 0x35, 0x1a, 0x58, 0x52, 0x06, 0x49, 0x1b, 0x17,
  0x56, 0x40, 0x5f, 0x2b, 0x4f, 0x56, 0x3f, 0x2f, 0x4b, 0x24, 0x34, 0x0c,
  0x44, 0x5b, 0x37, 0x47, 0x1f, 0x5a, 0x47, 0x50, 0x34, 0x21, 0x25, 0x5e,
  0x3f, 0x33, 0x7f, 0x09, 0xa1, 0xa0, 0x0f, 0xe3, 0xeb, 0x34, 0xf1, 0x9f,
  0x0b, 0xa8, 0xde, 0xce, 0xa6, 0x2a, 0xa5, 0xca, 0x39, 0x5b, 0xa1, 0xc0,
  0xf7, 0xfc, 0x30, 0x56, 0x91, 0xf9, 0xef, 0x58, 0x2b, 0xb2, 0x4f, 0xcd,
  0xeb, 0x9f, 0xb0, 0xee, 0xdb, 0xcc, 0xb1, 0x94, 0xf4, 0x9a, 0x30, 0xf1,
  0xe6, 0x40, 0xf6, 0x06, 0x93, 0x0c, 0x5e, 0x39, 0xf8, 0xf7, 0x53, 0xb2,
  0x38, 0x9a, 0x33, 0xaf, 0x1d, 0x40, 0x9c, 0x42, 0xf7, 0xe5, 0xb3, 0x02,
  0xd0, 0xc8, 0x23, 0xaa, 0xbf, 0xa1, 0x2a, 0xda, 0x52, 0xc5, 0xe6, 0xaf,
  0xf1, 0xe9, 0xf2, 0x26, 0x53, 0x2f, 0x1d, 0x9a, 0x1c, 0xa2, 0x8c, 0x26,
  0x4d, 0x9e, 0x41, 0x91, 0xdf, 0x22, 0x24, 0xcd, 0x41, 0xa6, 0x35, 0x94,
  0xe1, 0x11, 0xc9, 0x4b, 0x0a, 0xd2, 0xf9, 0x98, 0x2b, 0x43, 0x14, 0xd8,
  0x28, 0xb8, 0x91, 0x2c, 0x1f, 0xdb, 0x90, 0xae, 0xa9, 0xbb, 0xce, 0x31,
  0x35, 0x25, 0x10, 0x18, 0x98, 0x81, 0x97, 0x03, 0xf8, 0x0b, 0x40, 0x35,
  0x8d, 0x42, 0x12, 0x49, 0xf1, 0xf9, 0xaf, 0x65, 0x50, 0xe4, 0xa4, 0x05,
  0x03, 0xa5, 0x08, 0xd9, 0x99, 0x86, 0x52, 0xf3, 0x28, 0x64, 0xce, 0x57,
  0x20, 0xb9, 0x0a, 0x9d, 0xb4, 0xcd, 0xea, 0xdd, 0x47, 0x56, 0xc6, 0xb3,
  0xb6, 0x69, 0x9e, 0x4f, 0x2c, 0x91, 0xe5, 0x71, 0x98, 0xdb, 0xc1, 0xef,
  0x43, 0xdb, 0xe5, 0x98, 0xfb, 0x40, 0x39, 0xb7, 0x71, 0x5a, 0x63, 0x26,
  0xc2, 0x82, 0x2e, 0xf9, 0x49, 0xf6, 0xbb, 0xd0, 0xcc, 0x43, 0xee, 0xc1,
  0x0f, 0xef, 0x30, 0x8c, 0x13, 0x49, 0x20, 0x17, 0xcd, 0xd3, 0x5f, 0x59,
  0x34, 0xd8, 0x24, 0x59, 0x4c, 0x3e, 0x01, 0xe9, 0x9a, 0xf9, 0xdc, 0x91,
  0x1c, 0xb9, 0xbc, 0x07, 0x6a, 0x31, 0x81, 0xf5, 0xaf, 0x8d, 0x41, 0x07,
  0x32, 0xfb, 0x19, 0xb5, 0xfc, 0xcc, 0x75, 0x82, 0x82, 0x84, 0xdc, 0x2d,
  0xd3, 0x8d, 0x93, 0x03, 0x8b, 0x3c, 0xe7, 0xdb, 0xc3, 0x4a, 0x2c, 0xe9,
  0x6e, 0xd9, 0x23, 0x1a, 0x06, 0x66, 0x24, 0xaa, 0x92, 0x34, 0x05, 0x00,
  0x0e, 0x8c, 0x98, 0xa0, 0x2b, 0xf4, 0x43, 0x03, 0xf4, 0x91, 0x3d, 0x0d,
  0xe5, 0xb4, 0xf9, 0x16, 0xfa, 0x8d, 0xf2, 0xf4, 0x98, 0xa7, 0x3e, 0x40,
  0xc0, 0x3a, 0xb7, 0x4c, 0x1e, 0x03, 0x0d, 0x96, 0x2b, 0x1a, 0x84, 0x92,
  0x06, 0x45, 0xc7, 0x08, 0x47, 0xe7, 0x4a, 0x3b, 0x4a, 0xf1, 0xe7, 0xf4,
  0xc5, 0x1e, 0xfb, 0x81, 0xf9, 0x43, 0x2b, 0xdb, 0x02, 0xe9, 0xf2, 0xc1,
  0xb7, 0x2c, 0xe7, 0x20, 0xc2, 0x38, 0x06, 0xfa, 0x24, 0x95, 0x46, 0xc3,
  0x19, 0x18, 0x9a, 0xcd, 0x40, 0x4e, 0xf1, 0xee, 0x16, 0xb8, 0x13, 0x3b,
  0xc6, 0xe1, 0x06, 0x0b, 0xe8, 0xc7, 0x4f, 0x8e, 0xaf, 0xc4, 0x98, 0xa0,
  0xc0, 0x45, 0xad, 0x9c, 0x1d, 0xe2, 0x9c, 0x3e, 0x14, 0xff, 0x2a, 0xfb,
  0xdb, 0x23, 0x16, 0xcb, 0x35, 0xee, 0x12, 0xaf, 0xd4, 0xad, 0xca, 0x93,
  0xcf, 0x0a, 0xa4, 0x40, 0x09, 0x94, 0x38, 0xb8, 0x3f, 0x33, 0xe8, 0xa1,
  0x34, 0x15, 0x3d, 0x08, 0x56, 0x4f, 0xcf, 0xaa, 0x2d, 0xa4, 0xeb, 0x9e,
  0xa9, 0x8f, 0xd2, 0xca, 0x0a, 0x2a, 0x6a, 0x78, 0x11, 0x2f, 0x07, 0x57,
  0x4b, 0x16, 0x48, 0x16, 0x67, 0x00, 0x31, 0x62, 0x32, 0x13, 0x34, 0x58,
  0x0f, 0x19, 0x24, 0x4c, 0x3d, 0x06, 0x4d, 0x4d, 0x47, 0x27, 0x4d, 0x6f,
  0x14, 0x0d, 0x63, 0x61, 0x34, 0x09, 0x0b, 0x19, 0x1c, 0xe9, 0xfc, 0x42,
  0x7f, 0x30, 0x1e, 0x59, 0xc1, 0x06, 0x20, 0x01, 0x06, 0x19, 0xe2, 0xc6,
  0xfb, 0x16, 0xbe, 0x0f, 0xe0, 0xe8, 0xe8, 0x17, 0xdb, 0xb6, 0xd0, 0xc5,
  0xe7, 0x0a, 0xcb, 0xd4, 0xab, 0xf1, 0xb6, 0xe6, 0x10, 0xcf, 0x1d, 0x05,
  0xfc, 0xf3, 0xea, 0xd2, 0xdf, 0xf9, 0xcd, 0xb0, 0xbb, 0x09, 0xfd, 0xf7,
  0xdc, 0x03, 0xcb, 0xf8, 0x2d, 0x19, 0x36, 0x06, 0x51, 0x5e, 0x06, 0x2b,
  0xfa, 0x38, 0x66, 0x10, 0x61, 0x25, 0x2f, 0x48, 0x3d, 0xe6, 0xe8, 0xc9,
  0x31, 0xe9, 0x2d, 0x02, 0x16, 0x30, 0xf9, 0xdf, 0x3f, 0xf7, 0x46, 0x22,
  0xe4, 0xec, 0x00, 0xd4, 0x0e, 0xfc, 0xd2, 0xda, 0xfe, 0xee, 0xdb, 0x16,
  0xc8, 0x19, 0xe9, 0xd7, 0x4f, 0x41, 0x42, 0x2c, 0x04, 0x26, 0x12, 0x0c,
  0x34, 0x33, 0x29, 0x0a, 0x53, 0x37, 0x28, 0x6b, 0x2a, 0x59, 0x2c, 0x3e,
  0x42, 0x2e, 0xfb, 0x08, 0xfa, 0xf4, 0xfe, 0x52, 0x3b, 0x1b, 0x1a, 0x30,
  0x38, 0x24, 0x32, 0x47, 0x24, 0x49, 0x49, 0x30, 0x27, 0x40, 0x3a, 0x26,
  0x3b, 0x1d, 0x09, 0x63, 0x1f, 0xd3, 0xef, 0x23, 0xf3, 0xd3, 0x13, 0xf2,
  0xfc, 0xf2, 0xdc, 0xcd, 0xfe, 0xcf, 0xc0, 0x2d, 0x05, 0xfe, 0xd1, 0xe9,
  0xde, 0x08, 0x0a, 0x07, 0xe4, 0xe0, 0xfa, 0xc0, 0x04, 0xcb, 0xc4, 0xd3,
  0x10, 0x1e, 0xe1, 0xd9, 0x07, 0xed, 0xf7, 0xfd, 0xee, 0x0d, 0xe0, 0x14,
  0x06, 0xc8, 0xdb, 0xd0, 0x08, 0x23, 0x46, 0x41, 0x62, 0x61, 0x60, 0x1a,
  0x30, 0x6a, 0x46, 0x44, 0x13, 0x65, 0x2c, 0x2a, 0x01, 0x00, 0x06, 0xe9,
  0x28, 0x60, 0x28, 0x47, 0xff, 0x7f, 0x2b, 0xf2, 0x51, 0x45, 0x3e, 0x55,
  0x55, 0x1f, 0x4d, 0x0c, 0x12, 0x26, 0x30, 0x42, 0x3e, 0x4e, 0x6a, 0x54,
  0x56, 0x74, 0x52, 0x51, 0xec, 0xc2, 0x3f, 0x14, 0xaa, 0x95, 0x5d, 0x25,
  0xe6, 0x3c, 0x1a, 0xe9, 0x25, 0x97, 0x87, 0xd7, 0x4a, 0xa2, 0xbc, 0x07,
  0x94, 0xa5, 0xe6, 0x86, 0x67, 0x2a, 0x67, 0xa4, 0x9c, 0xdd, 0xfd, 0x1c,
  0x9a, 0xd2, 0x54, 0x21, 0x4e, 0xd7, 0xb2, 0xb1, 0x99, 0x3a, 0x28, 0x40,
  0xe3, 0x2a, 0xd6, 0xd6, 0x1d, 0xae, 0x34, 0x2c, 0x62, 0xc5, 0x8e, 0x08,
  0xb0, 0x16, 0xb8, 0x8d, 0x9e, 0xe2, 0xc3, 0xa9, 0x9f, 0xe5, 0x86, 0x59,
  0x28, 0x97, 0x34, 0xef, 0xd0, 0xc6, 0x0d, 0x00, 0x8a, 0xb2, 0xe3, 0xa5,
  0xd3, 0x54, 0x3c, 0x2c, 0xfa, 0x8e, 0xfe, 0x5a, 0x04, 0x5f, 0xcc, 0xcb,
  0x05, 0xf6, 0x85, 0xd3, 0xf0, 0xe3, 0x81, 0x2b, 0x67, 0x9a, 0xb9, 0xcf,
  0x16, 0xdc, 0x00, 0xf2, 0x50, 0x24, 0x27, 0x38, 0x1a, 0x17, 0xe1, 0x98,
  0x49, 0xf1, 0x3e, 0x8a, 0x66, 0xf1, 0x68, 0x27, 0x20, 0xbd, 0xdc, 0x8f,
  0x98, 0x57, 0x83, 0x54, 0x33, 0x06, 0xa8, 0x04, 0x8c, 0xe3, 0x40, 0x13,
  0xb4, 0xcd, 0x3f, 0xe2, 0x59, 0x35, 0x5f, 0x5b, 0xfe, 0x05, 0x25, 0x2a,
  0x17, 0x14, 0x03, 0x58, 0x31, 0xfb, 0x10, 0x4a, 0x1b, 0x1e, 0x3a, 0x74,
  0xff, 0x07, 0x4d, 0x0a, 0x16, 0x03, 0x61, 0x31, 0x37, 0xff, 0x51, 0x03,
  0x2c, 0x3b, 0x52, 0x2e, 0x3c, 0xf5, 0x49, 0x43, 0x1f, 0x19, 0x22, 0x4e,
  0x7f, 0xec, 0x09, 0x0b, 0xe9, 0xe9, 0x0c, 0x04, 0x3c, 0xcd, 0xcf, 0x3a,
  0x2f, 0x36, 0x24, 0x02, 0x10, 0x08, 0x01, 0x2c, 0xe0, 0x3a, 0xdb, 0x15,
  0x25, 0x25, 0xcc, 0xea, 0xd8, 0x15, 0xcb, 0x13, 0xe7, 0xdc, 0xc7, 0xdd,
  0x1a, 0x31, 0xf4, 0xe1, 0x0c, 0x22, 0xd1, 0xe4, 0xe9, 0xe0, 0x25, 0x12,
  0xd4, 0x12, 0xed, 0x32, 0x57, 0x1a, 0x2e, 0xfe, 0x46, 0x29, 0x47, 0x48,
  0x36, 0x17, 0x7c, 0x30, 0x47, 0x3a, 0x2e, 0x09, 0x17, 0x37, 0x23, 0x13,
  0x48, 0x78, 0x6f, 0x3e, 0x0a, 0x16, 0x2b, 0x4f, 0x4f, 0x77, 0x44, 0x64,
  0x66, 0x5e, 0x06, 0x17, 0x4a, 0x6a, 0x61, 0x29, 0x54, 0x33, 0x2f, 0x68,
  0x30, 0x53, 0x59, 0x31, 0xf7, 0xe3, 0xa7, 0xe9, 0xca, 0x10, 0xcf, 0x1a,
  0xc4, 0x33, 0x6b, 0xcc, 0x1e, 0x46, 0x4b, 0xe4, 0xa4, 0xad, 0xa5, 0x15,
  0x1f, 0xe7, 0x5a, 0xed, 0xcf, 0x35, 0xf4, 0xbc, 0x34, 0x56, 0x27, 0xfb,
  0xb7, 0x1c, 0x99, 0x8d, 0x19, 0x10, 0x49, 0x2d, 0xee, 0xd7, 0x05, 0x95,
  0x96, 0x62, 0x29, 0xe2, 0xe1, 0xf2, 0x28, 0x3f, 0x23, 0x64, 0xf6, 0xcc,
  0x0c, 0x3c, 0x24, 0xee, 0xd3, 0x4e, 0x27, 0xb2, 0x12, 0xbf, 0x09, 0x04,
  0x03, 0x3c, 0x0c, 0x29, 0x35, 0x41, 0x45, 0x1a, 0xe4, 0x6b, 0x7f, 0x2d,
  0xd9, 0xe4, 0x05, 0x31, 0x2b, 0x36, 0xe2, 0xf2, 0x45, 0xfb, 0x0d, 0x66,
  0x24, 0x2b, 0x27, 0x26, 0xb5, 0xf8, 0x16, 0xe1, 0x54, 0x37, 0xbf, 0x3a,
  0xf6, 0x07, 0xfa, 0xe1, 0x3c, 0x09, 0xcc, 0xf1, 0xc4, 0x2b, 0x0d, 0x0a,
  0x4c, 0xdb, 0x27, 0x01, 0x37, 0xa9, 0xba, 0xd9, 0x06, 0xf5, 0x4f, 0xca,
  0xf6, 0x0a, 0xd6, 0x47, 0xb8, 0x3b, 0x03, 0xfc, 0x36, 0xd0, 0xcb, 0x0f,
  0xbc, 0xca, 0x47, 0xb1, 0xf9, 0xad, 0x92, 0xc3, 0xff, 0x92, 0x17, 0x04,
  0x93, 0xaf, 0x81, 0xdd, 0x6c, 0xc7, 0xc6, 0x9c, 0x35, 0x98, 0xd4, 0xcb,
  0x6b, 0xae, 0x8b, 0x6b, 0xb4, 0xae, 0x29, 0x88, 0x4d, 0xec, 0x24, 0x40,
  0xbb, 0x13, 0x87, 0x35, 0x2f, 0x1d, 0xfd, 0xab, 0xc3, 0x50, 0x16, 0xc2,
  0xfc, 0xe4, 0x90, 0xc4, 0x03, 0x0e, 0xf2, 0x30, 0x08, 0xe5, 0xdf, 0x14,
  0x12, 0xe6, 0x90, 0x18, 0x4d, 0x9e, 0x3c, 0x75, 0xc3, 0xb7, 0x09, 0x28,
  0xbe, 0xb7, 0xfe, 0xde, 0xce, 0x0b, 0x1c, 0x27, 0xc4, 0x63, 0x9d, 0x28,
  0x49, 0xf2, 0x06, 0xc0, 0x9a, 0x31, 0xec, 0xf2, 0xa5, 0x19, 0x1e, 0xa9,
  0x4e, 0x54, 0x95, 0xb1, 0xe6, 0x10, 0xb3, 0x98, 0x11, 0xb0, 0x1a, 0xf5,
  0x46, 0xba, 0x6f, 0x9f, 0x5a, 0xc0, 0x41, 0xc0, 0x86, 0x22, 0xac, 0xbb,
  0x8a, 0x13, 0x66, 0x5f, 0xae, 0xa1, 0xf1, 0xdd, 0x0a, 0xff, 0x07, 0x01,
  0x53, 0x33, 0x04, 0xbd, 0xbe, 0x1c, 0x86, 0xb8, 0xcb, 0x09, 0x9c, 0xc5,
  0x5f, 0x56, 0xad, 0xdd, 0x99, 0x31, 0x0d, 0xab, 0xc8, 0x42, 0xa7, 0xbe,
  0x2e, 0xa6, 0xa2, 0xec, 0xc7, 0x2b, 0x97, 0xfa, 0xec, 0x81, 0x38, 0x97,
  0x92, 0xbc, 0xf6, 0xa4, 0x64, 0xab, 0x68, 0x22, 0x23, 0x35, 0x8c, 0xa8,
  0x0d, 0x93, 0xb7, 0x30, 0x1c, 0x90, 0x29, 0xc8, 0xe4, 0xb6, 0x31, 0x9c,
  0xac, 0x2a, 0xe4, 0x1d, 0xd0, 0x30, 0xfa, 0xda, 0xc6, 0xa8, 0x11, 0x07,
  0x69, 0x06, 0xeb, 0xf4, 0xa5, 0x11, 0xdd, 0xae, 0xd4, 0x26, 0xd0, 0xa5,
  0x21, 0x42, 0x3f, 0xe7, 0x3f, 0x46, 0x9f, 0xe1, 0xd2, 0xa2, 0xba, 0x39,
  0x09, 0x34, 0xb7, 0xb5, 0xa6, 0x99, 0xca, 0x5e, 0x87, 0xd9, 0x32, 0xed,
  0x09, 0xdd, 0xd9, 0x18, 0x5d, 0xa7, 0x9a, 0x1f, 0xf8, 0xad, 0xe1, 0xbc,
  0x53, 0x52, 0x65, 0x45, 0x4e, 0xe3, 0xb6, 0xac, 0x29, 0x81, 0x00, 0x59,
  0x82, 0xe9, 0x14, 0xdd, 0xfb, 0x64, 0x8a, 0x45, 0xcc, 0xe1, 0xe4, 0x0f,
  0x17, 0xf4, 0x0a, 0x17, 0xe2, 0xf0, 0xc3, 0x2e, 0xaa, 0x15, 0x3d, 0x43,
  0x5c, 0xf9, 0xbf, 0xa9, 0x24, 0x58, 0xc5, 0x81, 0xee, 0x53, 0x04, 0xb5,
  0xf1, 0xd4, 0x4c, 0x16, 0x3d, 0xca, 0x27, 0xa5, 0x84, 0xe2, 0x4f, 0xfc,
  0xdd, 0x16, 0xc0, 0xe8, 0x3b, 0x4a, 0x06, 0x3b, 0x1a, 0x96, 0xef, 0xb7,
  0xbb, 0x20, 0xee, 0xdb, 0x8a, 0xd8, 0x34, 0xd2, 0x51, 0xc6, 0x28, 0xfb,
  0xfe, 0x0e, 0x95, 0x1e, 0xe3, 0x8c, 0xb4, 0xf0, 0x5a, 0x1c, 0x11, 0x55,
  0xf5, 0xa7, 0xa0, 0xd3, 0x4f, 0xa7, 0x5f, 0x18, 0xfc, 0xd4, 0x5c, 0xcf,
  0x5d, 0xa4, 0x3a, 0xde, 0x52, 0xbc, 0xed, 0x93, 0xbf, 0x85, 0x49, 0x49,
  0xff, 0xb1, 0x47, 0xed, 0x1b, 0x97, 0x30, 0xc4, 0xaf, 0x3a, 0xeb, 0xe8,
  0x98, 0x9e, 0x04, 0x40, 0xa4, 0x97, 0x0a, 0xff, 0xf3, 0x5c, 0xe3, 0xf0,
  0xbd, 0x55, 0x8b, 0x0f, 0xe6, 0xa7, 0x07, 0x54, 0xce, 0x0f, 0x04, 0xc1,
  0xf6, 0x1c, 0xdc, 0xc4, 0xca, 0xda, 0x12, 0xb1, 0x37, 0x0e, 0xc2, 0xe5,
  0x54, 0xd9, 0x8c, 0xe3, 0x38, 0x9f, 0xa1, 0xbe, 0x96, 0x4b, 0x98, 0x4c,
  0xbc, 0x0f, 0xd0, 0xb6, 0x08, 0x1f, 0x2a, 0x66, 0x12, 0x19, 0x32, 0x0c,
  0x27, 0xfd, 0x40, 0x61, 0x20, 0xfd, 0x01, 0x05, 0x2c, 0x24, 0x25, 0x26,
  0x5a, 0x51, 0x4e, 0x2f, 0x0c, 0xec, 0x1f, 0x1b, 0x14, 0x35, 0x22, 0x55,
  0x43, 0x52, 0x64, 0x4e, 0x43, 0x2e, 0x18, 0x5c, 0x32, 0x0c, 0x2b, 0x35,
  0x69, 0x02, 0x19, 0x58, 0x09, 0x20, 0xf8, 0xd7, 0x10, 0x17, 0x2b, 0x22,
  0xd7, 0x1b, 0x0c, 0x00, 0x20, 0x0c, 0xe3, 0xf6, 0xf2, 0x16, 0xeb, 0xe5,
  0x35, 0xe4, 0x01, 0xfb, 0x0b, 0xef, 0xf8, 0xf9, 0x05, 0xbf, 0x16, 0x0d,
  0xf3, 0x34, 0xf6, 0x2a, 0xf8, 0xd7, 0xf3, 0xf9, 0x17, 0xef, 0x07, 0xf4,
  0xce, 0x0a, 0xf2, 0x2e, 0x58, 0x4e, 0x50, 0xff, 0x1f, 0x21, 0x14, 0x2f,
  0x0b, 0x3b, 0x69, 0x01, 0x1f, 0x34, 0x3c, 0x5b, 0x55, 0x0b, 0x0d, 0x1b,
  0x42, 0x54, 0x64, 0x48, 0x04, 0x4f, 0x5f, 0x2d, 0x0b, 0x10, 0x6c, 0x5f,
  0x52, 0x52, 0x35, 0x0d, 0x5f, 0x51, 0x43, 0x36, 0x2f, 0x60, 0x36, 0x0a,
  0x16, 0x47, 0x7f, 0x59, 0xbe, 0x2c, 0x13, 0x0a, 0x0c, 0x34, 0xf8, 0xeb,
  0xa9, 0x12, 0xf7, 0x38, 0x13, 0xda, 0xf6, 0xe3, 0x1d, 0x0f, 0x42, 0x13,
  0xb6, 0xb7, 0xf8, 0x9f, 0x18, 0x9d, 0xf8, 0x24, 0xf1, 0xb0, 0xe4, 0x9c,
  0xac, 0xd2, 0x21, 0xda, 0xda, 0xef, 0x37, 0xc3, 0xf9, 0x9d, 0xd0, 0xe5,
  0xf6, 0xd2, 0x81, 0xfd, 0x9e, 0xd1, 0x1d, 0x9e, 0xf3, 0x38, 0xf7, 0xa1,
  0x2c, 0x27, 0x17, 0x4b, 0x9d, 0xc5, 0xac, 0xe0, 0x15, 0x21, 0x24, 0xf0,
  0xcf, 0xc1, 0x00, 0xe8, 0xb3, 0xea, 0x31, 0x4d, 0x17, 0xc9, 0xcb, 0x32,
  0x2a, 0xec, 0xcb, 0x18, 0xc6, 0x2a, 0xe1, 0xe8, 0x18, 0x0b, 0xa0, 0x2c,
  0x3f, 0x11, 0x38, 0xe4, 0x40, 0x1f, 0x2c, 0xa0, 0xab, 0xd4, 0x12, 0x3b,
  0xf6, 0x32, 0xe9, 0x47, 0xc3, 0x87, 0x32, 0xc1, 0x4a, 0x9a, 0xb5, 0x2b,
  0xcc, 0xe0, 0x16, 0x2c, 0xb0, 0x35, 0x02, 0x2c, 0x36, 0xe9, 0xe8, 0x3d,
  0x0e, 0xcd, 0x9b, 0xd7, 0xad, 0xb2, 0x3c, 0xa4, 0x15, 0x24, 0x1e, 0x34,
  0x3a, 0x0b, 0xf1, 0xdb, 0xa0, 0x11, 0x08, 0xa9, 0x03, 0x3b, 0xc6, 0x83,
  0xa5, 0xe7, 0x27, 0xce, 0xc0, 0x31, 0x5b, 0xfc, 0x0e, 0x18, 0x18, 0xc2,
  0x0c, 0xd7, 0x39, 0x20, 0xd9, 0x4a, 0x98, 0x2b, 0xd9, 0x18, 0x0e, 0xab,
  0x40, 0x07, 0x08, 0xf6, 0x0d, 0xab, 0xb2, 0xe2, 0xf4, 0xab, 0xc4, 0xc8,
  0xbf, 0x07, 0x7f, 0xb1, 0xda, 0xc3, 0xb3, 0xf2, 0x24, 0xb0, 0x99, 0xb5,
  0xb2, 0xfa, 0xeb, 0xa1, 0x20, 0x2f, 0x64, 0xe3, 0x1b, 0x02, 0xce, 0xea,
  0xb8, 0x37, 0xb1, 0xff, 0x3c, 0xaf, 0x2d, 0x17, 0x43, 0x5f, 0xfc, 0xf8,
  0x3e, 0xd9, 0x3e, 0xea, 0xe2, 0x70, 0x65, 0x2c, 0xe6, 0x25, 0x57, 0xde,
  0x61, 0x2a, 0x59, 0xc8, 0x38, 0xfd, 0xfe, 0xe6, 0xcb, 0xe0, 0xd6, 0xc9,
  0xff, 0xc8, 0x14, 0x0d, 0x4c, 0xb3, 0xc9, 0xc4, 0x9c, 0xa0, 0x11, 0x0b,
  0xac, 0x11, 0x29, 0xb1, 0x27, 0xc9, 0xe1, 0xde, 0x26, 0xff, 0x40, 0xe0,
  0x08, 0xc1, 0x01, 0xf0, 0xcd, 0xd0, 0x1d, 0x03, 0xfc, 0x37, 0x11, 0x4a,
  0xb0, 0x36, 0x26, 0xf7, 0x2f, 0x18, 0x45, 0x41, 0x45, 0x39, 0x0a, 0x04,
  0x24, 0x18, 0x06, 0x0e, 0x60, 0x3c, 0x1f, 0x21, 0x53, 0x0d, 0x50, 0x4a,
  0x3c, 0x38, 0x32, 0x26, 0x2b, 0x24, 0x07, 0x5a, 0x11, 0xf8, 0x28, 0x0f,
  0x20, 0x34, 0x3f, 0x40, 0x26, 0x0e, 0x38, 0xfb, 0x18, 0x06, 0x20, 0x4e,
  0x3f, 0xfa, 0x3b, 0x58, 0xff, 0x16, 0x0f, 0xe1, 0x12, 0xd6, 0x14, 0xff,
  0x25, 0x05, 0x16, 0x21, 0xe7, 0x0b, 0xe1, 0xeb, 0x0d, 0xe0, 0x23, 0xe4,
  0x2c, 0xf0, 0xd1, 0xda, 0xef, 0xf1, 0xd7, 0x09, 0x14, 0xfd, 0xdb, 0x14,
  0xf4, 0x2f, 0x31, 0xed, 0x08, 0xfe, 0x1a, 0x1a, 0x26, 0xff, 0x09, 0x1e,
  0xd2, 0xf6, 0x10, 0xfd, 0x42, 0x02, 0x07, 0xf1, 0x40, 0x21, 0x11, 0x37,
  0x47, 0x56, 0x1b, 0x0a, 0x27, 0x33, 0x18, 0x41, 0x23, 0x40, 0x0c, 0xfc,
  0x15, 0x39, 0x4b, 0x54, 0x18, 0x3c, 0x50, 0x2e, 0x3a, 0x2e, 0x41, 0x1e,
  0x3b, 0x02, 0x42, 0x3c, 0x1e, 0x40, 0x38, 0x45, 0x31, 0x6c, 0x4f, 0x35,
  0x19, 0x36, 0x7f, 0x18, 0x0e, 0x37, 0x5c, 0x63, 0x1d, 0x1f, 0x52, 0x05,
  0x51, 0xe9, 0x48, 0x2b, 0x26, 0xe7, 0x03, 0x5b, 0x24, 0x47, 0x03, 0x18,
  0x19, 0x08, 0x31, 0x05, 0xf8, 0x21, 0x08, 0x0e, 0x16, 0x3c, 0x51, 0x3b,
  0x18, 0x29, 0x63, 0x52, 0x17, 0x32, 0x0b, 0x31, 0x17, 0xee, 0x47, 0x70,
  0x22, 0x2c, 0x4f, 0x40, 0x2f, 0x00, 0x1e, 0x1f, 0xe0, 0xc8, 0x25, 0x17,
  0xf5, 0x03, 0xe6, 0xd1, 0xf4, 0xc0, 0xe4, 0x28, 0x04, 0xdd, 0xdf, 0xd3,
  0x35, 0xf3, 0xc8, 0xd2, 0xda, 0x1c, 0x08, 0x28, 0xfd, 0xbc, 0xea, 0x09,
  0xe9, 0x14, 0x36, 0x11, 0xfc, 0x10, 0xf2, 0x06, 0xf3, 0x1a, 0x14, 0x30,
  0x0e, 0xc5, 0x2c, 0x01, 0x09, 0x2b, 0x09, 0xdd, 0x39, 0x18, 0x37, 0x1a,
  0x0b, 0x62, 0x51, 0x04, 0x2a, 0x52, 0x52, 0x64, 0x1c, 0x3c, 0x68, 0x24,
  0x2a, 0x3c, 0x4a, 0x3b, 0x2e, 0x6a, 0x4f, 0xf7, 0x1c, 0x6b, 0x5b, 0x01,
  0x15, 0x0e, 0x41, 0x22, 0x22, 0x39, 0x2f, 0x70, 0x2a, 0x7d, 0x7f, 0x0b,
  0x40, 0x30, 0x63, 0x1a, 0x0b, 0xe0, 0xf0, 0xf8, 0xfe, 0x10, 0xd5, 0xf7,
  0xd3, 0xff, 0xf7, 0xb6, 0xcd, 0xf9, 0x2c, 0x08, 0xf4, 0xf8, 0xe1, 0xb9,
  0xfb, 0x16, 0x35, 0xf1, 0x2c, 0x02, 0xe6, 0xd4, 0x19, 0xeb, 0xe1, 0xe6,
  0xdb, 0xd1, 0xce, 0xa6, 0x04, 0xda, 0xe1, 0xee, 0xcc, 0x29, 0x19, 0x0c,
  0xb7, 0x01, 0x0f, 0xd8, 0x48, 0xf0, 0x1d, 0x1d, 0x34, 0x15, 0x05, 0xf1,
  0xe5, 0x00, 0x47, 0x52, 0x3b, 0x2d, 0x33, 0xf1, 0x01, 0x35, 0xf0, 0x24,
  0x39, 0x5b, 0x5a, 0x55, 0x4f, 0x42, 0x56, 0x56, 0xfd, 0x7f, 0x78, 0x55,
  0x2e, 0x56, 0xf3, 0xfb, 0x0a, 0x2f, 0x31, 0x61, 0x3f, 0x0e, 0x15, 0x3c,
  0x60, 0x36, 0x00, 0x2d, 0x16, 0xe7, 0xfc, 0xd2, 0xd7, 0x0e, 0xe0, 0xc5,
  0x11, 0xb9, 0xd7, 0xfb, 0x03, 0xd1, 0x07, 0xce, 0xf8, 0xda, 0xf5, 0x2a,
  0x06, 0x09, 0x0c, 0xfe, 0x0c, 0xa3, 0xe8, 0xf2, 0xf2, 0xe2, 0x11, 0x0b,
  0xda, 0xc5, 0xc2, 0xf0, 0x13, 0xcd, 0x26, 0xc3, 0x30, 0xcb, 0xbd, 0xc7,
  0x2b, 0xd5, 0xf3, 0xc5, 0x06, 0xba, 0x2c, 0x08, 0xf8, 0x53, 0xa4, 0xb7,
  0xc3, 0xd0, 0xb2, 0x5e, 0xdb, 0x27, 0xe2, 0x45, 0x5c, 0x5e, 0x1f, 0x92,
  0x5a, 0xe2, 0xb8, 0x08, 0x0d, 0x9c, 0x58, 0xe2, 0xe0, 0xe2, 0x0d, 0xc2,
  0x0c, 0x91, 0xd9, 0x0b, 0x2c, 0x41, 0x4e, 0x17, 0xab, 0x23, 0xca, 0xea,
  0x21, 0x35, 0xc3, 0xb2, 0x1a, 0x99, 0x08, 0x0e, 0x0d, 0x54, 0x51, 0x29,
  0xd9, 0x33, 0xf4, 0x9a, 0x47, 0x8a, 0x1f, 0xcf, 0x1c, 0x36, 0x1a, 0xee,
  0xa1, 0x31, 0xce, 0x0f, 0xf2, 0xbf, 0x12, 0xe3, 0x53, 0xe6, 0xc1, 0xda,
  0x52, 0xa0, 0x92, 0xcb, 0xc7, 0xb5, 0x94, 0xf2, 0xab, 0xb7, 0xa2, 0x25,
  0x9d, 0xd1, 0x5a, 0x95, 0xaa, 0xf2, 0x57, 0x5c, 0x2e, 0x03, 0x97, 0x00,
  0xec, 0xb8, 0xa5, 0xbc, 0xc3, 0xef, 0x98, 0xee, 0x33, 0xab, 0x59, 0x14,
  0xf4, 0x52, 0x8c, 0xca, 0x4e, 0x2c, 0xd2, 0x88, 0xd1, 0x0c, 0x8e, 0xea,
  0xe7, 0x3d, 0x51, 0xaa, 0x4f, 0x21, 0x46, 0xdf, 0xa7, 0x23, 0xcb, 0x81,
  0x3c, 0xcb, 0x1e, 0x36, 0x09, 0x2c, 0x45, 0xcf, 0x2d, 0x3d, 0xdb, 0x89,
  0x97, 0xb5, 0xd7, 0x5c, 0x35, 0x2f, 0xd9, 0xf6, 0x94, 0x85, 0xb2, 0xe5,
  0x5a, 0x8e, 0x1e, 0x31, 0xf7, 0x32, 0xa7, 0x60, 0x24, 0x98, 0x9e, 0xe1,
  0xf6, 0x28, 0xae, 0x86, 0xd5, 0xf7, 0x3b, 0xf8, 0x17, 0xbd, 0xd0, 0xa7,
  0xc2, 0xbe, 0x40, 0x26, 0xc1, 0xdd, 0x41, 0x84, 0xae, 0xd9, 0x60, 0x0f,
  0x10, 0xc0, 0xe6, 0x04, 0x35, 0xa2, 0xce, 0x85, 0x4c, 0xed, 0x0d, 0xaa,
  0xa7, 0x35, 0xa7, 0xf7, 0xae, 0xb7, 0x20, 0xf3, 0xc0, 0xa8, 0xb9, 0x11,
  0x39, 0x1f, 0x52, 0xca, 0xa6, 0x30, 0x51, 0xd4, 0x1d, 0x94, 0xd8, 0xb9,
  0xdd, 0xfe, 0xba, 0xaf, 0xba, 0x9f, 0x0f, 0xc4, 0xde, 0x02, 0x95, 0x14,
  0x8b, 0x52, 0x10, 0xf8, 0xac, 0xff, 0x93, 0x37, 0x21, 0xa5, 0x31, 0xe9,
  0xfc, 0xd8, 0x0c, 0x17, 0x3c, 0x86, 0x14, 0x0e, 0x2c, 0xf3, 0x2a, 0xb6,
  0x2e, 0x25, 0x24, 0x3c, 0x0a, 0x42, 0x21, 0x18, 0x95, 0x81, 0xce, 0x06,
  0x29, 0xc9, 0xd8, 0xfd, 0x43, 0x17, 0x52, 0x67, 0x43, 0x17, 0x22, 0x05,
  0x42, 0x08, 0x27, 0x31, 0x43, 0xe7, 0x5b, 0x11, 0x29, 0x43, 0x4c, 0x70,
  0x5d, 0x13, 0x3f, 0x3a, 0x53, 0x06, 0x17, 0x29, 0x5d, 0x00, 0x4b, 0x0b,
  0x04, 0x1f, 0x4f, 0x2a, 0x13, 0xf8, 0x04, 0x4f, 0x20, 0xeb, 0x00, 0x1d,
  0x25, 0x0f, 0x3d, 0x2f, 0x10, 0xee, 0x2a, 0x02, 0xe5, 0xe3, 0xf0, 0xdd,
  0x2b, 0x17, 0x00, 0x06, 0xfa, 0x00, 0xe5, 0xd8, 0x19, 0x0b, 0x0c, 0x14,
  0xd8, 0x27, 0xf8, 0x08, 0x08, 0x23, 0xe0, 0xe9, 0xc6, 0xe2, 0xee, 0x01,
  0xde, 0x2e, 0x21, 0xd2, 0x33, 0xe4, 0xed, 0x33, 0x0c, 0x29, 0x2d, 0xf1,
  0x1a, 0xe4, 0xe8, 0x31, 0x08, 0x06, 0x26, 0xea, 0x1d, 0x28, 0x3a, 0x47,
  0x5f, 0x43, 0x18, 0x34, 0x26, 0x11, 0x72, 0x54, 0x3e, 0x5d, 0x33, 0x3c,
  0x49, 0x19, 0x32, 0x15, 0xfd, 0x37, 0x1b, 0x57, 0x60, 0x3e, 0x75, 0x01,
  0x4e, 0x30, 0x64, 0xf6, 0x3d, 0x48, 0x5c, 0x33, 0x23, 0x47, 0x7a, 0x09,
  0x4a, 0x34, 0x7f, 0x22, 0x27, 0x15, 0x23, 0x26, 0x0a, 0x1c, 0x57, 0x26,
  0x19, 0xf6, 0x05, 0x4b, 0x43, 0xe6, 0x46, 0x1c, 0x5a, 0x26, 0x0e, 0x0b,
  0x26, 0x3c, 0xfb, 0x04, 0x0a, 0xed, 0x08, 0x37, 0x59, 0xf5, 0x1a, 0x48,
  0x0b, 0x28, 0x28, 0x65, 0x0a, 0x25, 0x1a, 0x3c, 0x40, 0x3a, 0x45, 0x28,
  0x5c, 0x1a, 0xff, 0x1f, 0x17, 0x2f, 0xee, 0xf7, 0xe2, 0x19, 0x0c, 0x28,
  0xfb, 0x20, 0x2e, 0x1d, 0x06, 0x05, 0xea, 0x04, 0x03, 0x29, 0x01, 0xfb,
  0x09, 0x16, 0xf0, 0x30, 0x1c, 0x10, 0xd8, 0xd4, 0xea, 0x19, 0xcd, 0x1c,
  0xee, 0x04, 0xfc, 0x22, 0x12, 0x11, 0xef, 0x03, 0x2b, 0xfa, 0x13, 0x35,
  0xea, 0xd1, 0xe1, 0xee, 0x02, 0xfe, 0x00, 0xee, 0x0e, 0x41, 0x1f, 0x6a,
  0x12, 0x19, 0x2f, 0x4b, 0x53, 0x4f, 0x49, 0x53, 0x0a, 0x31, 0x3d, 0xea,
  0x5d, 0x63, 0x1e, 0x64, 0x30, 0x64, 0x38, 0x4f, 0x2b, 0x48, 0x4a, 0x15,
  0x18, 0x26, 0x29, 0x20, 0x08, 0x38, 0x56, 0x63, 0x32, 0x5b, 0x18, 0x1c,
  0x12, 0x65, 0x7f, 0x34, 0x6c, 0x38, 0x69, 0x34, 0x3a, 0x2b, 0x53, 0xfc,
  0x02, 0x03, 0x13, 0x32, 0x39, 0x12, 0x66, 0x6a, 0x23, 0x67, 0x19, 0x78,
  0x07, 0x4b, 0x5e, 0x06, 0x1b, 0x23, 0x16, 0x5d, 0x5c, 0x37, 0x01, 0x3d,
  0x1b, 0x43, 0x67, 0x33, 0x36, 0x23, 0x59, 0x37, 0x6b, 0xfd, 0x0c, 0x75,
  0x52, 0x40, 0x63, 0x35, 0x3b, 0x28, 0xfe, 0xc8, 0x2e, 0xff, 0xd7, 0x05,
  0xf6, 0xfd, 0xef, 0xe1, 0x11, 0xfe, 0xbe, 0xd2, 0x01, 0x20, 0x39, 0xea,
  0x24, 0xec, 0xee, 0xfe, 0x0e, 0xbf, 0x23, 0xf3, 0x2a, 0xe0, 0x16, 0xde,
  0xe9, 0x0b, 0xef, 0x1c, 0x0f, 0x24, 0x19, 0xd0, 0xf1, 0xcf, 0x15, 0xf4,
  0x0d, 0x27, 0xc4, 0xd6, 0x38, 0x0f, 0x11, 0x45, 0x72, 0x33, 0x7a, 0x51,
  0x0b, 0x6e, 0x77, 0x18, 0x3e, 0x6d, 0x74, 0x19, 0x55, 0x38, 0x3f, 0xf2,
  0x12, 0x4c, 0x6c, 0x14, 0x6d, 0x5d, 0x77, 0x2a, 0x54, 0x54, 0x43, 0x32,
  0x1f, 0x17, 0x67, 0x2b, 0x14, 0x63, 0x60, 0x7f, 0x29, 0x35, 0x49, 0x0d,
  0x69, 0x67, 0x5c, 0x35, 0x1f, 0x15, 0x15, 0x60, 0x61, 0xf4, 0x16, 0x03,
  0x02, 0x32, 0x52, 0x19, 0x7e, 0x11, 0x32, 0x5e, 0x34, 0x42, 0x31, 0x51,
  0x20, 0xfe, 0x24, 0x4a, 0x26, 0xee, 0x58, 0x25, 0x7f, 0x12, 0x35, 0x4f,
  0x22, 0x0c, 0x77, 0x6c, 0x51, 0x0d, 0x55, 0x0d, 0x41, 0x06, 0xfc, 0x76,
  0x3d, 0x33, 0x4d, 0x0a, 0x35, 0x32, 0x00, 0xc6, 0xdf, 0xe8, 0x06, 0x18,
  0x37, 0xe4, 0x1d, 0xd4, 0xe0, 0x27, 0xc3, 0x02, 0x09, 0xe9, 0x1d, 0x13,
  0x32, 0xf1, 0xce, 0x26, 0xeb, 0xee, 0xc6, 0xff, 0xe5, 0xfb, 0xe6, 0xce,
  0xe5, 0xf7, 0x0f, 0xfe, 0xd1, 0xfe, 0xe7, 0x2c, 0x32, 0xc9, 0xe7, 0x28,
  0x2f, 0xc4, 0xf9, 0xf4, 0x43, 0x09, 0x53, 0xe3, 0x3f, 0x0f, 0x5f, 0x1b,
  0x64, 0x5f, 0x28, 0x65, 0x14, 0x2e, 0x52, 0x66, 0x4a, 0x59, 0x38, 0xfa,
  0x2a, 0x49, 0x2d, 0x3a, 0x3e, 0x65, 0x1e, 0x4d, 0x4c, 0x6f, 0x63, 0x48,
  0x51, 0x4b, 0x5f, 0x2e, 0x66, 0x2b, 0x74, 0x49, 0x65, 0x57, 0x5c, 0x1b,
  0x16, 0x6c, 0x41, 0x6b, 0x36, 0xff, 0xff, 0xff, 0x04, 0x00, 0x00, 0x00,
  0x80, 0x00, 0x00, 0x00, 0x20, 0xff, 0xff, 0xff, 0x22, 0xf5, 0xff, 0xff,
  0x58, 0xff, 0xff, 0xff, 0xb8, 0xf7, 0xff, 0xff, 0x0a, 0x8d, 0x00, 0x00,
  0x9e, 0xfe, 0xff, 0xff, 0xe9, 0xfe, 0xff, 0xff, 0x88, 0xf6, 0xff, 0xff,
  0x33, 0xff, 0xff, 0xff, 0x17, 0xf8, 0xff, 0xff, 0xae, 0xf7, 0xff, 0xff,
  0xa6, 0xf6, 0xff, 0xff, 0xf8, 0xff, 0xff, 0xff, 0x21, 0xff, 0xff, 0xff,
  0xc7, 0xf8, 0xff, 0xff, 0x1b, 0xff, 0xff, 0xff, 0xd3, 0x38, 0x00, 0x00,
  0x76, 0xf6, 0xff, 0xff, 0x20, 0xf8, 0xff, 0xff, 0xea, 0xf3, 0xff, 0xff,
  0x6f, 0xfe, 0xff, 0xff, 0x66, 0xf6, 0xff, 0xff, 0xe7, 0x10, 0x00, 0x00,
  0x53, 0xff, 0xff, 0xff, 0xd5, 0xfe, 0xff, 0xff, 0xb6, 0x73, 0x00, 0x00,
  0x62, 0xf7, 0xff, 0xff, 0xa0, 0xf7, 0xff, 0xff, 0xae, 0xfe, 0xff, 0xff,
  0x14, 0xff, 0xff, 0xff, 0xb9, 0xfe, 0xff, 0xff, 0xc2, 0xfe, 0xff, 0xff,
  0xc2, 0xff, 0xff, 0xff, 0x04, 0x00, 0x00, 0x00, 0x20, 0x00, 0x00, 0x00,
  0xe6, 0x23, 0xde, 0x3a, 0x7c, 0xd4, 0xc1, 0x35, 0xcf, 0x02, 0x11, 0x36,
  0xe5, 0xe6, 0x14, 0xbd, 0x4b, 0x21, 0x05, 0x21, 0xd1, 0x32, 0x10, 0xb6,
  0xc3, 0x7f, 0x02, 0x1b, 0xe4, 0xaf, 0xde, 0xdb, 0xee, 0xff, 0xff, 0xff,
  0x04, 0x00, 0x00, 0x00, 0x04, 0x00, 0x00, 0x00, 0xe7, 0x04, 0x00, 0x00,
  0x00, 0x00, 0x06, 0x00, 0x08, 0x00, 0x04, 0x00, 0x06, 0x00, 0x00, 0x00,
  0x04, 0x00, 0x00, 0x00, 0x08, 0x00, 0x00, 0x00, 0x01, 0x00, 0x00, 0x00,
  0x02, 0x00, 0x00, 0x00, 0x7c, 0xef, 0xff, 0xff, 0x80, 0xef, 0xff, 0xff,
  0x0f, 0x00, 0x00, 0x00, 0x4d, 0x4c, 0x49, 0x52, 0x20, 0x43, 0x6f, 0x6e,
  0x76, 0x65, 0x72, 0x74, 0x65, 0x64, 0x2e, 0x00, 0x01, 0x00, 0x00, 0x00,
  0x14, 0x00, 0x00, 0x00, 0x00, 0x00, 0x0e, 0x00, 0x18, 0x00, 0x14, 0x00,
  0x10, 0x00, 0x0c, 0x00, 0x08, 0x00, 0x04, 0x00, 0x0e, 0x00, 0x00, 0x00,
  0x14, 0x00, 0x00, 0x00, 0x1c, 0x00, 0x00, 0x00, 0x48, 0x02, 0x00, 0x00,
  0x4c, 0x02, 0x00, 0x00, 0x50, 0x02, 0x00, 0x00, 0x04, 0x00, 0x00, 0x00,
  0x6d, 0x61, 0x69, 0x6e, 0x00, 0x00, 0x00, 0x00, 0x08, 0x00, 0x00, 0x00,
  0xe0, 0x01, 0x00, 0x00, 0x7c, 0x01, 0x00, 0x00, 0x28, 0x01, 0x00, 0x00,
  0xe4, 0x00, 0x00, 0x00, 0xa0, 0x00, 0x00, 0x00, 0x6c, 0x00, 0x00, 0x00,
  0x34, 0x00, 0x00, 0x00, 0x10, 0x00, 0x00, 0x00, 0x00, 0x00, 0x0a, 0x00,
  0x10, 0x00, 0x0c, 0x00, 0x08, 0x00, 0x04, 0x00, 0x0a, 0x00, 0x00, 0x00,
  0x0c, 0x00, 0x00, 0x00, 0x10, 0x00, 0x00, 0x00, 0x04, 0x00, 0x00, 0x00,
  0x01, 0x00, 0x00, 0x00, 0x11, 0x00, 0x00, 0x00, 0x01, 0x00, 0x00, 0x00,
  0x10, 0x00, 0x00, 0x00, 0xda, 0xfe, 0xff, 0xff, 0x14, 0x00, 0x00, 0x00,
  0x00, 0x00, 0x00, 0x08, 0x10, 0x00, 0x00, 0x00, 0x14, 0x00, 0x00, 0x00,
  0x03, 0x00, 0x00, 0x00, 0x3c, 0xf0, 0xff, 0xff, 0x01, 0x00, 0x00, 0x00,
  0x10, 0x00, 0x00, 0x00, 0x03, 0x00, 0x00, 0x00, 0x0f, 0x00, 0x00, 0x00,
  0x03, 0x00, 0x00, 0x00, 0x02, 0x00, 0x00, 0x00, 0x0e, 0xff, 0xff, 0xff,
  0x14, 0x00, 0x00, 0x00, 0x00, 0x00, 0x00, 0x1b, 0x10, 0x00, 0x00, 0x00,
  0x14, 0x00, 0x00, 0x00, 0x02, 0x00, 0x00, 0x00, 0x70, 0xf0, 0xff, 0xff,
  0x01, 0x00, 0x00, 0x00, 0x0f, 0x00, 0x00, 0x00, 0x02, 0x00, 0x00, 0x00,
  0x0e, 0x00, 0x00, 0x00, 0x01, 0x00, 0x00, 0x00, 0xde, 0xfe, 0xff, 0xff,
  0x10, 0x00, 0x00, 0x00, 0x00, 0x00, 0x00, 0x01, 0x1c, 0x00, 0x00, 0x00,
  0x20, 0x00, 0x00, 0x00, 0xd0, 0xfe, 0xff, 0xff, 0x00, 0x00, 0x00, 0x01,
  0x01, 0x00, 0x00, 0x00, 0x01, 0x00, 0x00, 0x00, 0x00, 0x00, 0x00, 0x01,
  0x01, 0x00, 0x00, 0x00, 0x0e, 0x00, 0x00, 0x00, 0x03, 0x00, 0x00, 0x00,
  0x0d, 0x00, 0x00, 0x00, 0x05, 0x00, 0x00, 0x00, 0x04, 0x00, 0x00, 0x00,
  0x7e, 0xff, 0xff, 0xff, 0x14, 0x00, 0x00, 0x00, 0x00, 0x00, 0x00, 0x05,
  0x24, 0x00, 0x00, 0x00, 0x28, 0x00, 0x00, 0x00, 0x01, 0x00, 0x00, 0x00,
  0x6e, 0xff, 0xff, 0xff, 0x02, 0x00, 0x00, 0x00, 0x02, 0x00, 0x00, 0x00,
  0x02, 0x00, 0x00, 0x00, 0x02, 0x00, 0x00, 0x00, 0x00, 0x00, 0x00, 0x01,
  0x01, 0x00, 0x00, 0x00, 0x0d, 0x00, 0x00, 0x00, 0x01, 0x00, 0x00, 0x00,
  0x0c, 0x00, 0x00, 0x00, 0x5e, 0xff, 0xff, 0xff, 0x10, 0x00, 0x00, 0x00,
  0x00, 0x00, 0x00, 0x01, 0x1c, 0x00, 0x00, 0x00, 0x20, 0x00, 0x00, 0x00,
  0x50, 0xff, 0xff, 0xff, 0x00, 0x00, 0x00, 0x01, 0x01, 0x00, 0x00, 0x00,
  0x01, 0x00, 0x00, 0x00, 0x00, 0x00, 0x00, 0x01, 0x01, 0x00, 0x00, 0x00,
  0x0c, 0x00, 0x00, 0x00, 0x03, 0x00, 0x00, 0x00, 0x0b, 0x00, 0x00, 0x00,
  0x07, 0x00, 0x00, 0x00, 0x06, 0x00, 0x00, 0x00, 0x00, 0x00, 0x0e, 0x00,
  0x1a, 0x00, 0x14, 0x00, 0x10, 0x00, 0x0c, 0x00, 0x0b, 0x00, 0x04, 0x00,
  0x0e, 0x00, 0x00, 0x00, 0x24, 0x00, 0x00, 0x00, 0x00, 0x00, 0x00, 0x05,
  0x34, 0x00, 0x00, 0x00, 0x38, 0x00, 0x00, 0x00, 0x01, 0x00, 0x00, 0x00,
  0x00, 0x00, 0x0e, 0x00, 0x18, 0x00, 0x17, 0x00, 0x10, 0x00, 0x0c, 0x00,
  0x08, 0x00, 0x04, 0x00, 0x0e, 0x00, 0x00, 0x00, 0x02, 0x00, 0x00, 0x00,
  0x02, 0x00, 0x00, 0x00, 0x02, 0x00, 0x00, 0x00, 0x02, 0x00, 0x00, 0x00,
  0x00, 0x00, 0x00, 0x01, 0x01, 0x00, 0x00, 0x00, 0x0b, 0x00, 0x00, 0x00,
  0x01, 0x00, 0x00, 0x00, 0x0a, 0x00, 0x00, 0x00, 0x00, 0x00, 0x0e, 0x00,
  0x14, 0x00, 0x00, 0x00, 0x10, 0x00, 0x0c, 0x00, 0x0b, 0x00, 0x04, 0x00,
  0x0e, 0x00, 0x00, 0x00, 0x1c, 0x00, 0x00, 0x00, 0x00, 0x00, 0x00, 0x01,
  0x28, 0x00, 0x00, 0x00, 0x2c, 0x00, 0x00, 0x00, 0x0c, 0x00, 0x14, 0x00,
  0x13, 0x00, 0x0c, 0x00, 0x08, 0x00, 0x07, 0x00, 0x0c, 0x00, 0x00, 0x00,
  0x00, 0x00, 0x00, 0x01, 0x01, 0x00, 0x00, 0x00, 0x01, 0x00, 0x00, 0x00,
  0x00, 0x00, 0x00, 0x01, 0x01, 0x00, 0x00, 0x00, 0x0a, 0x00, 0x00, 0x00,
  0x03, 0x00, 0x00, 0x00, 0x00, 0x00, 0x00, 0x00, 0x09, 0x00, 0x00, 0x00,
  0x08, 0x00, 0x00, 0x00, 0x01, 0x00, 0x00, 0x00, 0x11, 0x00, 0x00, 0x00,
  0x01, 0x00, 0x00, 0x00, 0x00, 0x00, 0x00, 0x00, 0x12, 0x00, 0x00, 0x00,
  0x24, 0x0e, 0x00, 0x00, 0xc8, 0x0d, 0x00, 0x00, 0x50, 0x0d, 0x00, 0x00,
  0xec, 0x0c, 0x00, 0x00, 0x18, 0x0b, 0x00, 0x00, 0x34, 0x09, 0x00, 0x00,
  0x20, 0x08, 0x00, 0x00, 0xfc, 0x06, 0x00, 0x00, 0x48, 0x06, 0x00, 0x00,
  0x84, 0x05, 0x00, 0x00, 0xb0, 0x04, 0x00, 0x00, 0x14, 0x04, 0x00, 0x00,
  0x20, 0x03, 0x00, 0x00, 0x84, 0x02, 0x00, 0x00, 0xb0, 0x01, 0x00, 0x00,
  0x1c, 0x01, 0x00, 0x00, 0x80, 0x00, 0x00, 0x00, 0x04, 0x00, 0x00, 0x00,
  0x3a, 0xf2, 0xff, 0xff, 0x00, 0x00, 0x00, 0x01, 0x18, 0x00, 0x00, 0x00,
  0x20, 0x00, 0x00, 0x00, 0x3c, 0x00, 0x00, 0x00, 0x12, 0x00, 0x00, 0x00,
  0x00, 0x00, 0x00, 0x09, 0x50, 0x00, 0x00, 0x00, 0x02, 0x00, 0x00, 0x00,
  0xff, 0xff, 0xff, 0xff, 0x01, 0x00, 0x00, 0x00, 0x1c, 0xf2, 0xff, 0xff,
  0x08, 0x00, 0x00, 0x00, 0x10, 0x00, 0x00, 0x00, 0x01, 0x00, 0x00, 0x00,
  0x80, 0xff, 0xff, 0xff, 0xff, 0xff, 0xff, 0xff, 0x01, 0x00, 0x00, 0x00,
  0x00, 0x00, 0x80, 0x3b, 0x1b, 0x00, 0x00, 0x00, 0x53, 0x74, 0x61, 0x74,
  0x65, 0x66, 0x75, 0x6c, 0x50, 0x61, 0x72, 0x74, 0x69, 0x74, 0x69, 0x6f,
  0x6e, 0x65, 0x64, 0x43, 0x61, 0x6c, 0x6c, 0x5f, 0x31, 0x3a, 0x30, 0x00,
  0x02, 0x00, 0x00, 0x00, 0x01, 0x00, 0x00, 0x00, 0x01, 0x00, 0x00, 0x00,
  0xb2, 0xf2, 0xff, 0xff, 0x00, 0x00, 0x00, 0x01, 0x18, 0x00, 0x00, 0x00,
  0x20, 0x00, 0x00, 0x00, 0x40, 0x00, 0x00, 0x00, 0x11, 0x00, 0x00, 0x00,
  0x00, 0x00, 0x00, 0x09, 0x70, 0x00, 0x00, 0x00, 0x02, 0x00, 0x00, 0x00,
  0xff, 0xff, 0xff, 0xff, 0x01, 0x00, 0x00, 0x00, 0x94, 0xf2, 0xff, 0xff,
  0x08, 0x00, 0x00, 0x00, 0x14, 0x00, 0x00, 0x00, 0x01, 0x00, 0x00, 0x00,
  0x77, 0x00, 0x00, 0x00, 0x00, 0x00, 0x00, 0x00, 0x00, 0x00, 0x00, 0x00,
  0x01, 0x00, 0x00, 0x00, 0x35, 0x30, 0x06, 0x3e, 0x34, 0x00, 0x00, 0x00,
  0x73, 0x65, 0x71, 0x75, 0x65, 0x6e, 0x74, 0x69, 0x61, 0x6c, 0x5f, 0x31,
  0x2f, 0x64, 0x65, 0x6e, 0x73, 0x65, 0x5f, 0x31, 0x2f, 0x4d, 0x61, 0x74,
  0x4d, 0x75, 0x6c, 0x3b, 0x73, 0x65, 0x71, 0x75, 0x65, 0x6e, 0x74, 0x69,
  0x61, 0x6c, 0x5f, 0x31, 0x2f, 0x64, 0x65, 0x6e, 0x73, 0x65, 0x5f, 0x31,
  0x2f, 0x41, 0x64, 0x64, 0x00, 0x00, 0x00, 0x00, 0x02, 0x00, 0x00, 0x00,
  0x01, 0x00, 0x00, 0x00, 0x01, 0x00, 0x00, 0x00, 0x4a, 0xf3, 0xff, 0xff,
  0x00, 0x00, 0x00, 0x01, 0x18, 0x00, 0x00, 0x00, 0x20, 0x00, 0x00, 0x00,
  0x40, 0x00, 0x00, 0x00, 0x10, 0x00, 0x00, 0x00, 0x00, 0x00, 0x00, 0x09,
  0x68, 0x00, 0x00, 0x00, 0x02, 0x00, 0x00, 0x00, 0xff, 0xff, 0xff, 0xff,
  0x20, 0x00, 0x00, 0x00, 0x2c, 0xf3, 0xff, 0xff, 0x08, 0x00, 0x00, 0x00,
  0x14, 0x00, 0x00, 0x00, 0x01, 0x00, 0x00, 0x00, 0x80, 0xff, 0xff, 0xff,
  0xff, 0xff, 0xff, 0xff, 0x00, 0x00, 0x00, 0x00, 0x01, 0x00, 0x00, 0x00,
  0x45, 0x0d, 0x28, 0x3d, 0x2c, 0x00, 0x00, 0x00, 0x73, 0x65, 0x71, 0x75,
  0x65, 0x6e, 0x74, 0x69, 0x61, 0x6c, 0x5f, 0x31, 0x2f, 0x67, 0x6c, 0x6f,
  0x62, 0x61, 0x6c, 0x5f, 0x61, 0x76, 0x65, 0x72, 0x61, 0x67, 0x65, 0x5f,
  0x70, 0x6f, 0x6f, 0x6c, 0x69, 0x6e, 0x67, 0x32, 0x64, 0x5f, 0x31, 0x2f,
  0x4d, 0x65, 0x61, 0x6e, 0x00, 0x00, 0x00, 0x00, 0x02, 0x00, 0x00, 0x00,
  0x01, 0x00, 0x00, 0x00, 0x20, 0x00, 0x00, 0x00, 0xda, 0xf3, 0xff, 0xff,
  0x00, 0x00, 0x00, 0x01, 0x18, 0x00, 0x00, 0x00, 0x28, 0x00, 0x00, 0x00,
  0x44, 0x00, 0x00, 0x00, 0x0f, 0x00, 0x00, 0x00, 0x00, 0x00, 0x00, 0x09,
  0xa0, 0x00, 0x00, 0x00, 0x04, 0x00, 0x00, 0x00, 0xff, 0xff, 0xff, 0xff,
  0x02, 0x00, 0x00, 0x00, 0x04, 0x00, 0x00, 0x00, 0x20, 0x00, 0x00, 0x00,
  0xc4, 0xf3, 0xff, 0xff, 0x08, 0x00, 0x00, 0x00, 0x10, 0x00, 0x00, 0x00,
  0x01, 0x00, 0x00, 0x00, 0x80, 0xff, 0xff, 0xff, 0xff, 0xff, 0xff, 0xff,
  0x01, 0x00, 0x00, 0x00, 0x67, 0x84, 0x5b, 0x3d, 0x61, 0x00, 0x00, 0x00,
  0x73, 0x65, 0x71, 0x75, 0x65, 0x6e, 0x74, 0x69, 0x61, 0x6c, 0x5f, 0x31,
  0x2f, 0x63, 0x6f, 0x6e, 0x76, 0x32, 0x64, 0x5f, 0x32, 0x5f, 0x31, 0x2f,
  0x52, 0x65, 0x6c, 0x75, 0x3b, 0x73, 0x65, 0x71, 0x75, 0x65, 0x6e, 0x74,
  0x69, 0x61, 0x6c, 0x5f, 0x31, 0x2f, 0x63, 0x6f, 0x6e, 0x76, 0x32, 0x64,
  0x5f, 0x32, 0x5f, 0x31, 0x2f, 0x42, 0x69, 0x61, 0x73, 0x41, 0x64, 0x64,
  0x3b, 0x73, 0x65, 0x71, 0x75, 0x65, 0x6e, 0x74, 0x69, 0x61, 0x6c, 0x5f,
  0x31, 0x2f, 0x63, 0x6f, 0x6e, 0x76, 0x32, 0x64, 0x5f, 0x32, 0x5f, 0x31,
  0x2f, 0x63, 0x6f, 0x6e, 0x76, 0x6f, 0x6c, 0x75, 0x74, 0x69, 0x6f, 0x6e,
  0x3b, 0x00, 0x00, 0x00, 0x04, 0x00, 0x00, 0x00, 0x01, 0x00, 0x00, 0x00,
  0x02, 0x00, 0x00, 0x00, 0x04, 0x00, 0x00, 0x00, 0x20, 0x00, 0x00, 0x00,
  0xaa, 0xf4, 0xff, 0xff, 0x00, 0x00, 0x00, 0x01, 0x18, 0x00, 0x00, 0x00,
  0x28, 0x00, 0x00, 0x00, 0x44, 0x00, 0x00, 0x00, 0x0e, 0x00, 0x00, 0x00,
  0x00, 0x00, 0x00, 0x09, 0x68, 0x00, 0x00, 0x00, 0x04, 0x00, 0x00, 0x00,
  0xff, 0xff, 0xff, 0xff, 0x04, 0x00, 0x00, 0x00, 0x06, 0x00, 0x00, 0x00,
  0x10, 0x00, 0x00, 0x00, 0x94, 0xf4, 0xff, 0xff, 0x08, 0x00, 0x00, 0x00,
  0x10, 0x00, 0x00, 0x00, 0x01, 0x00, 0x00, 0x00, 0x80, 0xff, 0xff, 0xff,
  0xff, 0xff, 0xff, 0xff, 0x01, 0x00, 0x00, 0x00, 0x28, 0x92, 0xca, 0x3b,
  0x28, 0x00, 0x00, 0x00, 0x73, 0x65, 0x71, 0x75, 0x65, 0x6e, 0x74, 0x69,
  0x61, 0x6c, 0x5f, 0x31, 0x2f, 0x6d, 0x61, 0x78, 0x5f, 0x70, 0x6f, 0x6f,
  0x6c, 0x69, 0x6e, 0x67, 0x32, 0x64, 0x5f, 0x31, 0x5f, 0x32, 0x2f, 0x4d,
  0x61, 0x78, 0x50, 0x6f, 0x6f, 0x6c, 0x32, 0x64, 0x00, 0x00, 0x00, 0x00,
  0x04, 0x00, 0x00, 0x00, 0x01, 0x00, 0x00, 0x00, 0x04, 0x00, 0x00, 0x00,
  0x06, 0x00, 0x00, 0x00, 0x10, 0x00, 0x00, 0x00, 0x42, 0xf5, 0xff, 0xff,
  0x00, 0x00, 0x00, 0x01, 0x18, 0x00, 0x00, 0x00, 0x28, 0x00, 0x00, 0x00,
  0x44, 0x00, 0x00, 0x00, 0x0d, 0x00, 0x00, 0x00, 0x00, 0x00, 0x00, 0x09,
  0xc0, 0x00, 0x00, 0x00, 0x04, 0x00, 0x00, 0x00, 0xff, 0xff, 0xff, 0xff,
  0x09, 0x00, 0x00, 0x00, 0x0d, 0x00, 0x00, 0x00, 0x10, 0x00, 0x00, 0x00,
  0x2c, 0xf5, 0xff, 0xff, 0x08, 0x00, 0x00, 0x00, 0x10, 0x00, 0x00, 0x00,
  0x01, 0x00, 0x00, 0x00, 0x80, 0xff, 0xff, 0xff, 0xff, 0xff, 0xff, 0xff,
  0x01, 0x00, 0x00, 0x00, 0x28, 0x92, 0xca, 0x3b, 0x80, 0x00, 0x00, 0x00,
  0x73, 0x65, 0x71, 0x75, 0x65, 0x6e, 0x74, 0x69, 0x61, 0x6c, 0x5f, 0x31,
  0x2f, 0x63, 0x6f, 0x6e, 0x76, 0x32, 0x64, 0x5f, 0x31, 0x5f, 0x32, 0x2f,
  0x52, 0x65, 0x6c, 0x75, 0x3b, 0x73, 0x65, 0x71, 0x75, 0x65, 0x6e, 0x74,
  0x69, 0x61, 0x6c, 0x5f, 0x31, 0x2f, 0x63, 0x6f, 0x6e, 0x76, 0x32, 0x64,
  0x5f, 0x31, 0x5f, 0x32, 0x2f, 0x42, 0x69, 0x61, 0x73, 0x41, 0x64, 0x64,
  0x3b, 0x73, 0x65, 0x71, 0x75, 0x65, 0x6e, 0x74, 0x69, 0x61, 0x6c, 0x5f,
  0x31, 0x2f, 0x63, 0x6f, 0x6e, 0x76, 0x32, 0x64, 0x5f, 0x31, 0x5f, 0x32,
  0x2f, 0x63, 0x6f, 0x6e, 0x76, 0x6f, 0x6c, 0x75, 0x74, 0x69, 0x6f, 0x6e,
  0x3b, 0x73, 0x65, 0x71, 0x75, 0x65, 0x6e, 0x74, 0x69, 0x61, 0x6c, 0x5f,
  0x31, 0x2f, 0x63, 0x6f, 0x6e, 0x76, 0x32, 0x64, 0x5f, 0x31, 0x5f, 0x32,
  0x2f, 0x53, 0x71, 0x75, 0x65, 0x65, 0x7a, 0x65, 0x00, 0x00, 0x00, 0x00,
  0x04, 0x00, 0x00, 0x00, 0x01, 0x00, 0x00, 0x00, 0x09, 0x00, 0x00, 0x00,
  0x0d, 0x00, 0x00, 0x00, 0x10, 0x00, 0x00, 0x00, 0x32, 0xf6, 0xff, 0xff,
  0x00, 0x00, 0x00, 0x01, 0x18, 0x00, 0x00, 0x00, 0x28, 0x00, 0x00, 0x00,
  0x48, 0x00, 0x00, 0x00, 0x0c, 0x00, 0x00, 0x00, 0x00, 0x00, 0x00, 0x09,
  0x68, 0x00, 0x00, 0x00, 0x04, 0x00, 0x00, 0x00, 0xff, 0xff, 0xff, 0xff,
  0x0b, 0x00, 0x00, 0x00, 0x0f, 0x00, 0x00, 0x00, 0x08, 0x00, 0x00, 0x00,
  0x1c, 0xf6, 0xff, 0xff, 0x08, 0x00, 0x00, 0x00, 0x14, 0x00, 0x00, 0x00,
  0x01, 0x00, 0x00, 0x00, 0x80, 0xff, 0xff, 0xff, 0xff, 0xff, 0xff, 0xff,
  0x00, 0x00, 0x00, 0x00, 0x01, 0x00, 0x00, 0x00, 0xbf, 0x40, 0x2c, 0x3b,
  0x26, 0x00, 0x00, 0x00, 0x73, 0x65, 0x71, 0x75, 0x65, 0x6e, 0x74, 0x69,
  0x61, 0x6c, 0x5f, 0x31, 0x2f, 0x6d, 0x61, 0x78, 0x5f, 0x70, 0x6f, 0x6f,
  0x6c, 0x69, 0x6e, 0x67, 0x32, 0x64, 0x5f, 0x31, 0x2f, 0x4d, 0x61, 0x78,
  0x50, 0x6f, 0x6f, 0x6c, 0x32, 0x64, 0x00, 0x00, 0x04, 0x00, 0x00, 0x00,
  0x01, 0x00, 0x00, 0x00, 0x0b, 0x00, 0x00, 0x00, 0x0f, 0x00, 0x00, 0x00,
  0x08, 0x00, 0x00, 0x00, 0xca, 0xf6, 0xff, 0xff, 0x00, 0x00, 0x00, 0x01,
  0x18, 0x00, 0x00, 0x00, 0x28, 0x00, 0x00, 0x00, 0x48, 0x00, 0x00, 0x00,
  0x0b, 0x00, 0x00, 0x00, 0x00, 0x00, 0x00, 0x09, 0xa0, 0x00, 0x00, 0x00,
  0x04, 0x00, 0x00, 0x00, 0xff, 0xff, 0xff, 0xff, 0x16, 0x00, 0x00, 0x00,
  0x1e, 0x00, 0x00, 0x00, 0x08, 0x00, 0x00, 0x00, 0xb4, 0xf6, 0xff, 0xff,
  0x08, 0x00, 0x00, 0x00, 0x14, 0x00, 0x00, 0x00, 0x01, 0x00, 0x00, 0x00,
  0x80, 0xff, 0xff, 0xff, 0xff, 0xff, 0xff, 0xff, 0x00, 0x00, 0x00, 0x00,
  0x01, 0x00, 0x00, 0x00, 0xbf, 0x40, 0x2c, 0x3b, 0x5c, 0x00, 0x00, 0x00,
  0x73, 0x65, 0x71, 0x75, 0x65, 0x6e, 0x74, 0x69, 0x61, 0x6c, 0x5f, 0x31,
  0x2f, 0x63, 0x6f, 0x6e, 0x76, 0x32, 0x64, 0x5f, 0x31, 0x2f, 0x52, 0x65,
  0x6c, 0x75, 0x3b, 0x73, 0x65, 0x71, 0x75, 0x65, 0x6e, 0x74, 0x69, 0x61,
  0x6c, 0x5f, 0x31, 0x2f, 0x63, 0x6f, 0x6e, 0x76, 0x32, 0x64, 0x5f, 0x31,
  0x2f, 0x42, 0x69, 0x61, 0x73, 0x41, 0x64, 0x64, 0x3b, 0x73, 0x65, 0x71,
  0x75, 0x65, 0x6e, 0x74, 0x69, 0x61, 0x6c, 0x5f, 0x31, 0x2f, 0x63, 0x6f,
  0x6e, 0x76, 0x32, 0x64, 0x5f, 0x31, 0x2f, 0x63, 0x6f, 0x6e, 0x76, 0x6f,
  0x6c, 0x75, 0x74, 0x69, 0x6f, 0x6e, 0x3b, 0x31, 0x00, 0x00, 0x00, 0x00,
  0x04, 0x00, 0x00, 0x00, 0x01, 0x00, 0x00, 0x00, 0x16, 0x00, 0x00, 0x00,
  0x1e, 0x00, 0x00, 0x00, 0x08, 0x00, 0x00, 0x00, 0xf2, 0xf7, 0xff, 0xff,
  0x00, 0x00, 0x00, 0x01, 0x14, 0x00, 0x00, 0x00, 0x88, 0x00, 0x00, 0x00,
  0x0a, 0x00, 0x00, 0x00, 0x00, 0x00, 0x00, 0x09, 0x94, 0x00, 0x00, 0x00,
  0x6c, 0xf7, 0xff, 0xff, 0x08, 0x00, 0x00, 0x00, 0x4c, 0x00, 0x00, 0x00,
  0x08, 0x00, 0x00, 0x00, 0x00, 0x00, 0x00, 0x00, 0x00, 0x00, 0x00, 0x00,
  0x00, 0x00, 0x00, 0x00, 0x00, 0x00, 0x00, 0x00, 0x00, 0x00, 0x00, 0x00,
  0x00, 0x00, 0x00, 0x00, 0x00, 0x00, 0x00, 0x00, 0x00, 0x00, 0x00, 0x00,
  0x00, 0x00, 0x00, 0x00, 0x00, 0x00, 0x00, 0x00, 0x00, 0x00, 0x00, 0x00,
  0x00, 0x00, 0x00, 0x00, 0x00, 0x00, 0x00, 0x00, 0x00, 0x00, 0x00, 0x00,
  0x00, 0x00, 0x00, 0x00, 0x00, 0x00, 0x00, 0x00, 0x00, 0x00, 0x00, 0x00,
  0x08, 0x00, 0x00, 0x00, 0x1b, 0x50, 0x2f, 0x3b, 0x36, 0x82, 0x09, 0x3b,
  0x3b, 0x64, 0x13, 0x3b, 0x2d, 0x48, 0x07, 0x3b, 0xc5, 0xea, 0x07, 0x3b,
  0x81, 0xc5, 0xd2, 0x3a, 0xed, 0xae, 0xe0, 0x3a, 0x30, 0x3b, 0x21, 0x3b,
  0x12, 0x00, 0x00, 0x00, 0x74, 0x66, 0x6c, 0x2e, 0x70, 0x73, 0x65, 0x75,
  0x64, 0x6f, 0x5f, 0x71, 0x63, 0x6f, 0x6e, 0x73, 0x74, 0x37, 0x00, 0x00,
  0x04, 0x00, 0x00, 0x00, 0x08, 0x00, 0x00, 0x00, 0x03, 0x00, 0x00, 0x00,
  0x03, 0x00, 0x00, 0x00, 0x01, 0x00, 0x00, 0x00, 0xb2, 0xf8, 0xff, 0xff,
  0x00, 0x00, 0x00, 0x01, 0x14, 0x00, 0x00, 0x00, 0x84, 0x00, 0x00, 0x00,
  0x09, 0x00, 0x00, 0x00, 0x00, 0x00, 0x00, 0x02, 0x90, 0x00, 0x00, 0x00,
  0x2c, 0xf8, 0xff, 0xff, 0x08, 0x00, 0x00, 0x00, 0x48, 0x00, 0x00, 0x00,
  0x08, 0x00, 0x00, 0x00, 0x00, 0x00, 0x00, 0x00, 0x00, 0x00, 0x00, 0x00,
  0x00, 0x00, 0x00, 0x00, 0x00, 0x00, 0x00, 0x00, 0x00, 0x00, 0x00, 0x00,
  0x00, 0x00, 0x00, 0x00, 0x00, 0x00, 0x00, 0x00, 0x00, 0x00, 0x00, 0x00,
  0x00, 0x00, 0x00, 0x00, 0x00, 0x00, 0x00, 0x00, 0x00, 0x00, 0x00, 0x00,
  0x00, 0x00, 0x00, 0x00, 0x00, 0x00, 0x00, 0x00, 0x00, 0x00, 0x00, 0x00,
  0x00, 0x00, 0x00, 0x00, 0x00, 0x00, 0x00, 0x00, 0x08, 0x00, 0x00, 0x00,
  0x1c, 0x00, 0x30, 0x37, 0x43, 0x0c, 0x0a, 0x37, 0x34, 0xf8, 0x13, 0x37,
  0xfe, 0xcf, 0x07, 0x37, 0x39, 0x73, 0x08, 0x37, 0x1b, 0x99, 0xd3, 0x36,
  0x7e, 0x90, 0xe1, 0x36, 0x0e, 0xdd, 0x21, 0x37, 0x12, 0x00, 0x00, 0x00,
  0x74, 0x66, 0x6c, 0x2e, 0x70, 0x73, 0x65, 0x75, 0x64, 0x6f, 0x5f, 0x71,
  0x63, 0x6f, 0x6e, 0x73, 0x74, 0x36, 0x00, 0x00, 0x01, 0x00, 0x00, 0x00,
  0x08, 0x00, 0x00, 0x00, 0x62, 0xf9, 0xff, 0xff, 0x00, 0x00, 0x00, 0x01,
  0x14, 0x00, 0x00, 0x00, 0xe8, 0x00, 0x00, 0x00, 0x08, 0x00, 0x00, 0x00,
  0x00, 0x00, 0x00, 0x09, 0xf4, 0x00, 0x00, 0x00, 0xdc, 0xf8, 0xff, 0xff,
  0x08, 0x00, 0x00, 0x00, 0x8c, 0x00, 0x00, 0x00, 0x10, 0x00, 0x00, 0x00,
  0x00, 0x00, 0x00, 0x00, 0x00, 0x00, 0x00, 0x00, 0x00, 0x00, 0x00, 0x00,
  0x00, 0x00, 0x00, 0x00, 0x00, 0x00, 0x00, 0x00, 0x00, 0x00, 0x00, 0x00,
  0x00, 0x00, 0x00, 0x00, 0x00, 0x00, 0x00, 0x00, 0x00, 0x00, 0x00, 0x00,
  0x00, 0x00, 0x00, 0x00, 0x00, 0x00, 0x00, 0x00, 0x00, 0x00, 0x00, 0x00,
  0x00, 0x00, 0x00, 0x00, 0x00, 0x00, 0x00, 0x00, 0x00, 0x00, 0x00, 0x00,
  0x00, 0x00, 0x00, 0x00, 0x00, 0x00, 0x00, 0x00, 0x00, 0x00, 0x00, 0x00,
  0x00, 0x00, 0x00, 0x00, 0x00, 0x00, 0x00, 0x00, 0x00, 0x00, 0x00, 0x00,
  0x00, 0x00, 0x00, 0x00, 0x00, 0x00, 0x00, 0x00, 0x00, 0x00, 0x00, 0x00,
  0x00, 0x00, 0x00, 0x00, 0x00, 0x00, 0x00, 0x00, 0x00, 0x00, 0x00, 0x00,
  0x00, 0x00, 0x00, 0x00, 0x00, 0x00, 0x00, 0x00, 0x00, 0x00, 0x00, 0x00,
  0x00, 0x00, 0x00, 0x00, 0x00, 0x00, 0x00, 0x00, 0x00, 0x00, 0x00, 0x00,
  0x10, 0x00, 0x00, 0x00, 0xcb, 0x21, 0x1c, 0x3b, 0x03, 0xb9, 0x25, 0x3b,
  0x3d, 0xeb, 0x38, 0x3b, 0xc9, 0x08, 0x5e, 0x3b, 0x75, 0xf0, 0x02, 0x3b,
  0xb1, 0x5b, 0x31, 0x3b, 0xe7, 0x0a, 0x3f, 0x3b, 0xfc, 0x7b, 0x1b, 0x3b,
  0x1e, 0xb6, 0x16, 0x3b, 0x0f, 0xcb, 0x1d, 0x3b, 0x16, 0x1e, 0x16, 0x3b,
  0x75, 0x61, 0x30, 0x3b, 0xe4, 0xf6, 0x55, 0x3b, 0x28, 0x0a, 0x26, 0x3b,
  0x8e, 0xa0, 0x26, 0x3b, 0xa3, 0x71, 0x2e, 0x3b, 0x12, 0x00, 0x00, 0x00,
  0x74, 0x66, 0x6c, 0x2e, 0x70, 0x73, 0x65, 0x75, 0x64, 0x6f, 0x5f, 0x71,
  0x63, 0x6f, 0x6e, 0x73, 0x74, 0x35, 0x00, 0x00, 0x04, 0x00, 0x00, 0x00,
  0x10, 0x00, 0x00, 0x00, 0x03, 0x00, 0x00, 0x00, 0x03, 0x00, 0x00, 0x00,
  0x08, 0x00, 0x00, 0x00, 0x82, 0xfa, 0xff, 0xff, 0x00, 0x00, 0x00, 0x01,
  0x14, 0x00, 0x00, 0x00, 0xe4, 0x00, 0x00, 0x00, 0x07, 0x00, 0x00, 0x00,
  0x00, 0x00, 0x00, 0x02, 0xf0, 0x00, 0x00, 0x00, 0xfc, 0xf9, 0xff, 0xff,
  0x08, 0x00, 0x00, 0x00, 0x88, 0x00, 0x00, 0x00, 0x10, 0x00, 0x00, 0x00,
  0x00, 0x00, 0x00, 0x00, 0x00, 0x00, 0x00, 0x00, 0x00, 0x00, 0x00, 0x00,
  0x00, 0x00, 0x00, 0x00, 0x00, 0x00, 0x00, 0x00, 0x00, 0x00, 0x00, 0x00,
  0x00, 0x00, 0x00, 0x00, 0x00, 0x00, 0x00, 0x00, 0x00, 0x00, 0x00, 0x00,
  0x00, 0x00, 0x00, 0x00, 0x00, 0x00, 0x00, 0x00, 0x00, 0x00, 0x00, 0x00,
  0x00, 0x00, 0x00, 0x00, 0x00, 0x00, 0x00, 0x00, 0x00, 0x00, 0x00, 0x00,
  0x00, 0x00, 0x00, 0x00, 0x00, 0x00, 0x00, 0x00, 0x00, 0x00, 0x00, 0x00,
  0x00, 0x00, 0x00, 0x00, 0x00, 0x00, 0x00, 0x00, 0x00, 0x00, 0x00, 0x00,
  0x00, 0x00, 0x00, 0x00, 0x00, 0x00, 0x00, 0x00, 0x00, 0x00, 0x00, 0x00,
  0x00, 0x00, 0x00, 0x00, 0x00, 0x00, 0x00, 0x00, 0x00, 0x00, 0x00, 0x00,
  0x00, 0x00, 0x00, 0x00, 0x00, 0x00, 0x00, 0x00, 0x00, 0x00, 0x00, 0x00,
  0x00, 0x00, 0x00, 0x00, 0x00, 0x00, 0x00, 0x00, 0x10, 0x00, 0x00, 0x00,
  0x63, 0x1c, 0xd2, 0x36, 0x70, 0x04, 0xdf, 0x36, 0xa4, 0xd9, 0xf8, 0x36,
  0x0f, 0x66, 0x15, 0x37, 0x59, 0x35, 0xb0, 0x36, 0xec, 0xac, 0xee, 0x36,
  0xa4, 0x8b, 0x00, 0x37, 0x41, 0x3d, 0xd1, 0x36, 0xf4, 0xd0, 0xca, 0x36,
  0xad, 0x58, 0xd4, 0x36, 0x5d, 0x04, 0xca, 0x36, 0x2d, 0x5c, 0xed, 0x36,
  0xff, 0xf7, 0x0f, 0x37, 0xa3, 0x71, 0xdf, 0x36, 0x08, 0x3c, 0xe0, 0x36,
  0xf0, 0xc0, 0xea, 0x36, 0x12, 0x00, 0x00, 0x00, 0x74, 0x66, 0x6c, 0x2e,
  0x70, 0x73, 0x65, 0x75, 0x64, 0x6f, 0x5f, 0x71, 0x63, 0x6f, 0x6e, 0x73,
  0x74, 0x34, 0x00, 0x00, 0x01, 0x00, 0x00, 0x00, 0x10, 0x00, 0x00, 0x00,
  0x92, 0xfb, 0xff, 0xff, 0x00, 0x00, 0x00, 0x01, 0x14, 0x00, 0x00, 0x00,
  0xa8, 0x01, 0x00, 0x00, 0x06, 0x00, 0x00, 0x00, 0x00, 0x00, 0x00, 0x09,
  0xb4, 0x01, 0x00, 0x00, 0x0c, 0xfb, 0xff, 0xff, 0x08, 0x00, 0x00, 0x00,
  0x0c, 0x01, 0x00, 0x00, 0x20, 0x00, 0x00, 0x00, 0x00, 0x00, 0x00, 0x00,
  0x00, 0x00, 0x00, 0x00, 0x00, 0x00, 0x00, 0x00, 0x00, 0x00, 0x00, 0x00,
  0x00, 0x00, 0x00, 0x00, 0x00, 0x00, 0x00, 0x00, 0x00, 0x00, 0x00, 0x00,
  0x00, 0x00, 0x00, 0x00, 0x00, 0x00, 0x00, 0x00, 0x00, 0x00, 0x00, 0x00,
  0x00, 0x00, 0x00, 0x00, 0x00, 0x00, 0x00, 0x00, 0x00, 0x00, 0x00, 0x00,
  0x00, 0x00, 0x00, 0x00, 0x00, 0x00, 0x00, 0x00, 0x00, 0x00, 0x00, 0x00,
  0x00, 0x00, 0x00, 0x00, 0x00, 0x00, 0x00, 0x00, 0x00, 0x00, 0x00, 0x00,
  0x00, 0x00, 0x00, 0x00, 0x00, 0x00, 0x00, 0x00, 0x00, 0x00, 0x00, 0x00,
  0x00, 0x00, 0x00, 0x00, 0x00, 0x00, 0x00, 0x00, 0x00, 0x00, 0x00, 0x00,
  0x00, 0x00, 0x00, 0x00, 0x00, 0x00, 0x00, 0x00, 0x00, 0x00, 0x00, 0x00,
  0x00, 0x00, 0x00, 0x00, 0x00, 0x00, 0x00, 0x00, 0x00, 0x00, 0x00, 0x00,
  0x00, 0x00, 0x00, 0x00, 0x00, 0x00, 0x00, 0x00, 0x00, 0x00, 0x00, 0x00,
  0x00, 0x00, 0x00, 0x00, 0x00, 0x00, 0x00, 0x00, 0x00, 0x00, 0x00, 0x00,
  0x00, 0x00, 0x00, 0x00, 0x00, 0x00, 0x00, 0x00, 0x00, 0x00, 0x00, 0x00,
  0x00, 0x00, 0x00, 0x00, 0x00, 0x00, 0x00, 0x00, 0x00, 0x00, 0x00, 0x00,
  0x00, 0x00, 0x00, 0x00, 0x00, 0x00, 0x00, 0x00, 0x00, 0x00, 0x00, 0x00,
  0x00, 0x00, 0x00, 0x00, 0x00, 0x00, 0x00, 0x00, 0x00, 0x00, 0x00, 0x00,
  0x00, 0x00, 0x00, 0x00, 0x00, 0x00, 0x00, 0x00, 0x00, 0x00, 0x00, 0x00,
  0x00, 0x00, 0x00, 0x00, 0x00, 0x00, 0x00, 0x00, 0x00, 0x00, 0x00, 0x00,
  0x00, 0x00, 0x00, 0x00, 0x00, 0x00, 0x00, 0x00, 0x00, 0x00, 0x00, 0x00,
  0x00, 0x00, 0x00, 0x00, 0x00, 0x00, 0x00, 0x00, 0x00, 0x00, 0x00, 0x00,
  0x00, 0x00, 0x00, 0x00, 0x00, 0x00, 0x00, 0x00, 0x00, 0x00, 0x00, 0x00,
  0x00, 0x00, 0x00, 0x00, 0x20, 0x00, 0x00, 0x00, 0xcb, 0x14, 0x19, 0x3b,
  0x0c, 0x77, 0x8b, 0x3a, 0xf7, 0x54, 0x19, 0x3b, 0x30, 0xdb, 0x86, 0x3a,
  0x42, 0x0b, 0x04, 0x3b, 0xa4, 0x20, 0x0e, 0x3b, 0x87, 0x83, 0x09, 0x3b,
  0xa6, 0x7c, 0x95, 0x3a, 0xd3, 0x6c, 0x1d, 0x3b, 0xed, 0x50, 0x95, 0x3a,
  0x65, 0xe3, 0x7c, 0x3a, 0x19, 0x0e, 0x9c, 0x3a, 0x8c, 0x1e, 0x13, 0x3b,
  0xc2, 0x51, 0x1b, 0x3b, 0xaa, 0xe3, 0x83, 0x3a, 0x30, 0xd9, 0x0b, 0x3b,
  0x43, 0xb8, 0xb2, 0x3a, 0xf9, 0x3c, 0x80, 0x3a, 0x80, 0x05, 0x81, 0x3a,
  0x4e, 0x6f, 0x90, 0x3a, 0xa2, 0x81, 0x14, 0x3b, 0x11, 0xa5, 0xa9, 0x3a,
  0x55, 0xc5, 0xa0, 0x3a, 0x55, 0xc5, 0x2c, 0x3b, 0x33, 0x15, 0x0b, 0x3b,
  0x9f, 0x7d, 0xf6, 0x3a, 0xa8, 0xe4, 0x8e, 0x3a, 0xcb, 0x82, 0x8e, 0x3a,
  0xa3, 0x5e, 0x17, 0x3b, 0x91, 0x04, 0x1f, 0x3b, 0x2b, 0x61, 0x03, 0x3b,
  0x54, 0x3a, 0x08, 0x3b, 0x12, 0x00, 0x00, 0x00, 0x74, 0x66, 0x6c, 0x2e,
  0x70, 0x73, 0x65, 0x75, 0x64, 0x6f, 0x5f, 0x71, 0x63, 0x6f, 0x6e, 0x73,
  0x74, 0x33, 0x00, 0x00, 0x04, 0x00, 0x00, 0x00, 0x20, 0x00, 0x00, 0x00,
  0x03, 0x00, 0x00, 0x00, 0x03, 0x00, 0x00, 0x00, 0x10, 0x00, 0x00, 0x00,
  0x72, 0xfd, 0xff, 0xff, 0x00, 0x00, 0x00, 0x01, 0x14, 0x00, 0x00, 0x00,
  0xa4, 0x01, 0x00, 0x00, 0x05, 0x00, 0x00, 0x00, 0x00, 0x00, 0x00, 0x02,
  0xb0, 0x01, 0x00, 0x00, 0xec, 0xfc, 0xff, 0xff, 0x08, 0x00, 0x00, 0x00,
  0x08, 0x01, 0x00, 0x00, 0x20, 0x00, 0x00, 0x00, 0x00, 0x00, 0x00, 0x00,
  0x00, 0x00, 0x00, 0x00, 0x00, 0x00, 0x00, 0x00, 0x00, 0x00, 0x00, 0x00,
  0x00, 0x00, 0x00, 0x00, 0x00, 0x00, 0x00, 0x00, 0x00, 0x00, 0x00, 0x00,
  0x00, 0x00, 0x00, 0x00, 0x00, 0x00, 0x00, 0x00, 0x00, 0x00, 0x00, 0x00,
  0x00, 0x00, 0x00, 0x00, 0x00, 0x00, 0x00, 0x00, 0x00, 0x00, 0x00, 0x00,
  0x00, 0x00, 0x00, 0x00, 0x00, 0x00, 0x00, 0x00, 0x00, 0x00, 0x00, 0x00,
  0x00, 0x00, 0x00, 0x00, 0x00, 0x00, 0x00, 0x00, 0x00, 0x00, 0x00, 0x00,
  0x00, 0x00, 0x00, 0x00, 0x00, 0x00, 0x00, 0x00, 0x00, 0x00, 0x00, 0x00,
  0x00, 0x00, 0x00, 0x00, 0x00, 0x00, 0x00, 0x00, 0x00, 0x00, 0x00, 0x00,
  0x00, 0x00, 0x00, 0x00, 0x00, 0x00, 0x00, 0x00, 0x00, 0x00, 0x00, 0x00,
  0x00, 0x00, 0x00, 0x00, 0x00, 0x00, 0x00, 0x00, 0x00, 0x00, 0x00, 0x00,
  0x00, 0x00, 0x00, 0x00, 0x00, 0x00, 0x00, 0x00, 0x00, 0x00, 0x00, 0x00,
  0x00, 0x00, 0x00, 0x00, 0x00, 0x00, 0x00, 0x00, 0x00, 0x00, 0x00, 0x00,
  0x00, 0x00, 0x00, 0x00, 0x00, 0x00, 0x00, 0x00, 0x00, 0x00, 0x00, 0x00,
  0x00, 0x00, 0x00, 0x00, 0x00, 0x00, 0x00, 0x00, 0x00, 0x00, 0x00, 0x00,
  0x00, 0x00, 0x00, 0x00, 0x00, 0x00, 0x00, 0x00, 0x00, 0x00, 0x00, 0x00,
  0x00, 0x00, 0x00, 0x00, 0x00, 0x00, 0x00, 0x00, 0x00, 0x00, 0x00, 0x00,
  0x00, 0x00, 0x00, 0x00, 0x00, 0x00, 0x00, 0x00, 0x00, 0x00, 0x00, 0x00,
  0x00, 0x00, 0x00, 0x00, 0x00, 0x00, 0x00, 0x00, 0x00, 0x00, 0x00, 0x00,
  0x00, 0x00, 0x00, 0x00, 0x00, 0x00, 0x00, 0x00, 0x00, 0x00, 0x00, 0x00,
  0x00, 0x00, 0x00, 0x00, 0x00, 0x00, 0x00, 0x00, 0x00, 0x00, 0x00, 0x00,
  0x00, 0x00, 0x00, 0x00, 0x00, 0x00, 0x00, 0x00, 0x00, 0x00, 0x00, 0x00,
  0x20, 0x00, 0x00, 0x00, 0x9c, 0x43, 0x72, 0x37, 0x1e, 0xb7, 0xdc, 0x36,
  0x2b, 0xa9, 0x72, 0x37, 0xe4, 0x6b, 0xd5, 0x36, 0x8a, 0xf8, 0x50, 0x37,
  0xcc, 0xed, 0x60, 0x37, 0x96, 0xa0, 0x59, 0x37, 0x67, 0x93, 0xec, 0x36,
  0x7e, 0x23, 0x79, 0x37, 0x35, 0x4e, 0xec, 0x36, 0xcf, 0x1b, 0xc8, 0x36,
  0x70, 0xf8, 0xf6, 0x36, 0x32, 0xd4, 0x68, 0x37, 0x60, 0xce, 0x75, 0x37,
  0xe1, 0xb9, 0xd0, 0x36, 0x6f, 0x52, 0x5d, 0x37, 0x6e, 0x6b, 0x0d, 0x37,
  0xa7, 0xf2, 0xca, 0x36, 0x01, 0x30, 0xcc, 0x36, 0x93, 0x94, 0xe4, 0x36,
  0x26, 0x06, 0x6b, 0x37, 0x1a, 0x3d, 0x06, 0x37, 0xfd, 0x6e, 0xfe, 0x36,
  0x59, 0xb6, 0x88, 0x37, 0x44, 0x1c, 0x5c, 0x37, 0xda, 0x0b, 0x43, 0x37,
  0x03, 0x24, 0xe2, 0x36, 0x22, 0x89, 0xe1, 0x36, 0x30, 0x8e, 0x6f, 0x37,
  0xc8, 0xa8, 0x7b, 0x37, 0x5c, 0xeb, 0x4f, 0x37, 0x9a, 0x97, 0x57, 0x37,
  0x12, 0x00, 0x00, 0x00, 0x74, 0x66, 0x6c, 0x2e, 0x70, 0x73, 0x65, 0x75,
  0x64, 0x6f, 0x5f, 0x71, 0x63, 0x6f, 0x6e, 0x73, 0x74, 0x32, 0x00, 0x00,
  0x01, 0x00, 0x00, 0x00, 0x20, 0x00, 0x00, 0x00, 0x42, 0xff, 0xff, 0xff,
  0x00, 0x00, 0x00, 0x01, 0x14, 0x00, 0x00, 0x00, 0x30, 0x00, 0x00, 0x00,
  0x04, 0x00, 0x00, 0x00, 0x00, 0x00, 0x00, 0x09, 0x3c, 0x00, 0x00, 0x00,
  0xbc, 0xfe, 0xff, 0xff, 0x08, 0x00, 0x00, 0x00, 0x10, 0x00, 0x00, 0x00,
  0x01, 0x00, 0x00, 0x00, 0x00, 0x00, 0x00, 0x00, 0x00, 0x00, 0x00, 0x00,
  0x01, 0x00, 0x00, 0x00, 0x5d, 0xab, 0xcb, 0x3b, 0x12, 0x00, 0x00, 0x00,
  0x74, 0x66, 0x6c, 0x2e, 0x70, 0x73, 0x65, 0x75, 0x64, 0x6f, 0x5f, 0x71,
  0x63, 0x6f, 0x6e, 0x73, 0x74, 0x31, 0x00, 0x00, 0x02, 0x00, 0x00, 0x00,
  0x01, 0x00, 0x00, 0x00, 0x20, 0x00, 0x00, 0x00, 0xa2, 0xff, 0xff, 0xff,
  0x00, 0x00, 0x00, 0x01, 0x14, 0x00, 0x00, 0x00, 0x30, 0x00, 0x00, 0x00,
  0x03, 0x00, 0x00, 0x00, 0x00, 0x00, 0x00, 0x02, 0x3c, 0x00, 0x00, 0x00,
  0x1c, 0xff, 0xff, 0xff, 0x08, 0x00, 0x00, 0x00, 0x10, 0x00, 0x00, 0x00,
  0x01, 0x00, 0x00, 0x00, 0x00, 0x00, 0x00, 0x00, 0x00, 0x00, 0x00, 0x00,
  0x01, 0x00, 0x00, 0x00, 0x04, 0xb3, 0x85, 0x39, 0x11, 0x00, 0x00, 0x00,
  0x74, 0x66, 0x6c, 0x2e, 0x70, 0x73, 0x65, 0x75, 0x64, 0x6f, 0x5f, 0x71,
  0x63, 0x6f, 0x6e, 0x73, 0x74, 0x00, 0x00, 0x00, 0x01, 0x00, 0x00, 0x00,
  0x01, 0x00, 0x00, 0x00, 0x00, 0x00, 0x16, 0x00, 0x1c, 0x00, 0x18, 0x00,
  0x17, 0x00, 0x10, 0x00, 0x0c, 0x00, 0x08, 0x00, 0x00, 0x00, 0x00, 0x00,
  0x00, 0x00, 0x07, 0x00, 0x16, 0x00, 0x00, 0x00, 0x00, 0x00, 0x00, 0x01,
  0x18, 0x00, 0x00, 0x00, 0x18, 0x00, 0x00, 0x00, 0x02, 0x00, 0x00, 0x00,
  0x00, 0x00, 0x00, 0x02, 0x20, 0x00, 0x00, 0x00, 0x04, 0x00, 0x04, 0x00,
  0x04, 0x00, 0x00, 0x00, 0x0e, 0x00, 0x00, 0x00, 0x61, 0x72, 0x69, 0x74,
  0x68, 0x2e, 0x63, 0x6f, 0x6e, 0x73, 0x74, 0x61, 0x6e, 0x74, 0x00, 0x00,
  0x01, 0x00, 0x00, 0x00, 0x02, 0x00, 0x00, 0x00, 0x00, 0x00, 0x16, 0x00,
  0x20, 0x00, 0x1c, 0x00, 0x1b, 0x00, 0x14, 0x00, 0x10, 0x00, 0x0c, 0x00,
  0x00, 0x00, 0x00, 0x00, 0x08, 0x00, 0x07, 0x00, 0x16, 0x00, 0x00, 0x00,
  0x00, 0x00, 0x00, 0x01, 0x18, 0x00, 0x00, 0x00, 0x34, 0x00, 0x00, 0x00,
  0x54, 0x00, 0x00, 0x00, 0x01, 0x00, 0x00, 0x00, 0x00, 0x00, 0x00, 0x09,
  0x6c, 0x00, 0x00, 0x00, 0x04, 0x00, 0x00, 0x00, 0xff, 0xff, 0xff, 0xff,
  0x18, 0x00, 0x00, 0x00, 0x20, 0x00, 0x00, 0x00, 0x01, 0x00, 0x00, 0x00,
  0x0c, 0x00, 0x0c, 0x00, 0x00, 0x00, 0x00, 0x00, 0x08, 0x00, 0x04, 0x00,
  0x0c, 0x00, 0x00, 0x00, 0x08, 0x00, 0x00, 0x00, 0x14, 0x00, 0x00, 0x00,
  0x01, 0x00, 0x00, 0x00, 0x80, 0xff, 0xff, 0xff, 0xff, 0xff, 0xff, 0xff,
  0x00, 0x00, 0x00, 0x00, 0x01, 0x00, 0x00, 0x00, 0x81, 0x80, 0x80, 0x3b,
  0x1d, 0x00, 0x00, 0x00, 0x73, 0x65, 0x72, 0x76, 0x69, 0x6e, 0x67, 0x5f,
  0x64, 0x65, 0x66, 0x61, 0x75, 0x6c, 0x74, 0x5f, 0x69, 0x6e, 0x70, 0x75,
  0x74, 0x5f, 0x6c, 0x61, 0x79, 0x65, 0x72, 0x3a, 0x30, 0x00, 0x00, 0x00,
  0x04, 0x00, 0x00, 0x00, 0x01, 0x00, 0x00, 0x00, 0x18, 0x00, 0x00, 0x00,
  0x20, 0x00, 0x00, 0x00, 0x01, 0x00, 0x00, 0x00, 0x05, 0x00, 0x00, 0x00,
  0x60, 0x00, 0x00, 0x00, 0x40, 0x00, 0x00, 0x00, 0x2c, 0x00, 0x00, 0x00,
  0x18, 0x00, 0x00, 0x00, 0x04, 0x00, 0x00, 0x00, 0xc0, 0xff, 0xff, 0xff,
  0x0e, 0x00, 0x00, 0x00, 0x02, 0x00, 0x00, 0x00, 0x00, 0x00, 0x00, 0x0e,
  0xd0, 0xff, 0xff, 0xff, 0x09, 0x00, 0x00, 0x00, 0x04, 0x00, 0x00, 0x00,
  0x00, 0x00, 0x00, 0x09, 0xe0, 0xff, 0xff, 0xff, 0x28, 0x00, 0x00, 0x00,
  0x02, 0x00, 0x00, 0x00, 0x00, 0x00, 0x00, 0x28, 0xf0, 0xff, 0xff, 0xff,
  0x11, 0x00, 0x00, 0x00, 0x02, 0x00, 0x00, 0x00, 0x00, 0x00, 0x00, 0x11,
  0x0c, 0x00, 0x10, 0x00, 0x0f, 0x00, 0x00, 0x00, 0x08, 0x00, 0x04, 0x00,
  0x0c, 0x00, 0x00, 0x00, 0x03, 0x00, 0x00, 0x00, 0x03, 0x00, 0x00, 0x00,
  0x00, 0x00, 0x00, 0x03
};
unsigned int modelo_int8_tflite_len = 11368;
